{
  "version": "1.0",
  "truncation": null,
  "padding": null,
  "added_tokens": [
    {
      "id": 0,
      "content": "<pad>",
      "single_word": false,
      "lstrip": false,
      "rstrip": false,
      "normalized": false,
      "special": true
    },
    {
      "id": 1,
      "content": "<bos>",
      "single_word": false,
      "lstrip": false,
      "rstrip": false,
      "normalized": false,
      "special": true
    },
    {
      "id": 2,
      "content": "<eos>",
      "single_word": false,
      "lstrip": false,
      "rstrip": false,
      "normalized": false,
      "special": true
    }
  ],
  "normalizer": {
    "type": "NFKC"
  },
  "pre_tokenizer": {
    "type": "ByteLevel",
    "add_prefix_space": false,
    "trim_offsets": true,
    "use_regex": true
  },
  "post_processor": null,
  "decoder": null,
  "model": {
    "type": "BPE",
    "dropout": null,
    "unk_token": null,
    "continuing_subword_prefix": null,
    "end_of_word_suffix": null,
    "fuse_unk": false,
    "byte_fallback": false,
    "ignore_merges": false,
    "vocab": {
      "<pad>": 0,
      "<bos>": 1,
      "<eos>": 2,
      "!": 3,
      "\"": 4,
      "#": 5,
      "$": 6,
      "%": 7,
      "&": 8,
      "'": 9,
      "(": 10,
      ")": 11,
      "*": 12,
      "+": 13,
      ",": 14,
      "-": 15,
      ".": 16,
      "/": 17,
      "0": 18,
      "1": 19,
      "2": 20,
      "3": 21,
      "4": 22,
      "5": 23,
      "6": 24,
      "7": 25,
      "8": 26,
      "9": 27,
      ":": 28,
      ";": 29,
      "<": 30,
      "=": 31,
      ">": 32,
      "?": 33,
      "@": 34,
      "A": 35,
      "B": 36,
      "C": 37,
      "D": 38,
      "E": 39,
      "F": 40,
      "G": 41,
      "H": 42,
      "I": 43,
      "J": 44,
      "K": 45,
      "L": 46,
      "M": 47,
      "N": 48,
      "O": 49,
      "P": 50,
      "Q": 51,
      "R": 52,
      "S": 53,
      "T": 54,
      "U": 55,
      "V": 56,
      "W": 57,
      "X": 58,
      "Y": 59,
      "Z": 60,
      "[": 61,
      "\\": 62,
      "]": 63,
      "^": 64,
      "_": 65,
      "`": 66,
      "a": 67,
      "b": 68,
      "c": 69,
      "d": 70,
      "e": 71,
      "f": 72,
      "g": 73,
      "h": 74,
      "i": 75,
      "j": 76,
      "k": 77,
      "l": 78,
      "m": 79,
      "n": 80,
      "o": 81,
      "p": 82,
      "q": 83,
      "r": 84,
      "s": 85,
      "t": 86,
      "u": 87,
      "v": 88,
      "w": 89,
      "x": 90,
      "y": 91,
      "z": 92,
      "{": 93,
      "|": 94,
      "}": 95,
      "~": 96,
      "¡": 97,
      "¢": 98,
      "£": 99,
      "¤": 100,
      "¥": 101,
      "¦": 102,
      "§": 103,
      "¨": 104,
      "©": 105,
      "ª": 106,
      "«": 107,
      "¬": 108,
      "®": 109,
      "¯": 110,
      "°": 111,
      "±": 112,
      "²": 113,
      "³": 114,
      "´": 115,
      "µ": 116,
      "¶": 117,
      "·": 118,
      "¸": 119,
      "¹": 120,
      "º": 121,
      "»": 122,
      "¼": 123,
      "½": 124,
      "¾": 125,
      "¿": 126,
      "À": 127,
      "Á": 128,
      "Â": 129,
      "Ã": 130,
      "Ä": 131,
      "Å": 132,
      "Æ": 133,
      "Ç": 134,
      "È": 135,
      "É": 136,
      "Ê": 137,
      "Ë": 138,
      "Ì": 139,
      "Í": 140,
      "Î": 141,
      "Ï": 142,
      "Ð": 143,
      "Ñ": 144,
      "Ò": 145,
      "Ó": 146,
      "Ô": 147,
      "Õ": 148,
      "Ö": 149,
      "×": 150,
      "Ø": 151,
      "Ù": 152,
      "Ú": 153,
      "Û": 154,
      "Ü": 155,
      "Ý": 156,
      "Þ": 157,
      "ß": 158,
      "à": 159,
      "á": 160,
      "â": 161,
      "ã": 162,
      "ä": 163,
      "å": 164,
      "æ": 165,
      "ç": 166,
      "è": 167,
      "é": 168,
      "ê": 169,
      "ë": 170,
      "ì": 171,
      "í": 172,
      "î": 173,
      "ï": 174,
      "ð": 175,
      "ñ": 176,
      "ò": 177,
      "ó": 178,
      "ô": 179,
      "õ": 180,
      "ö": 181,
      "÷": 182,
      "ø": 183,
      "ù": 184,
      "ú": 185,
      "û": 186,
      "ü": 187,
      "ý": 188,
      "þ": 189,
      "ÿ": 190,
      "Ā": 191,
      "ā": 192,
      "Ă": 193,
      "ă": 194,
      "Ą": 195,
      "ą": 196,
      "Ć": 197,
      "ć": 198,
      "Ĉ": 199,
      "ĉ": 200,
      "Ċ": 201,
      "ċ": 202,
      "Č": 203,
      "č": 204,
      "Ď": 205,
      "ď": 206,
      "Đ": 207,
      "đ": 208,
      "Ē": 209,
      "ē": 210,
      "Ĕ": 211,
      "ĕ": 212,
      "Ė": 213,
      "ė": 214,
      "Ę": 215,
      "ę": 216,
      "Ě": 217,
      "ě": 218,
      "Ĝ": 219,
      "ĝ": 220,
      "Ğ": 221,
      "ğ": 222,
      "Ġ": 223,
      "ġ": 224,
      "Ģ": 225,
      "ģ": 226,
      "Ĥ": 227,
      "ĥ": 228,
      "Ħ": 229,
      "ħ": 230,
      "Ĩ": 231,
      "ĩ": 232,
      "Ī": 233,
      "ī": 234,
      "Ĭ": 235,
      "ĭ": 236,
      "Į": 237,
      "į": 238,
      "İ": 239,
      "ı": 240,
      "Ĳ": 241,
      "ĳ": 242,
      "Ĵ": 243,
      "ĵ": 244,
      "Ķ": 245,
      "ķ": 246,
      "ĸ": 247,
      "Ĺ": 248,
      "ĺ": 249,
      "Ļ": 250,
      "ļ": 251,
      "Ľ": 252,
      "ľ": 253,
      "Ŀ": 254,
      "ŀ": 255,
      "Ł": 256,
      "ł": 257,
      "Ń": 258,
      "he": 259,
      "Ġt": 260,
      "Ġa": 261,
      "Ġs": 262,
      "Ġw": 263,
      "nd": 264,
      "Ġthe": 265,
      "ed": 266,
      "Ġand": 267,
      "Ġto": 268,
      "Ġb": 269,
      "in": 270,
      "Ġh": 271,
      "Ġwa": 272,
      "re": 273,
      "Ġf": 274,
      "ou": 275,
      "it": 276,
      "Ġl": 277,
      "Ġc": 278,
      "Ġd": 279,
      "er": 280,
      "Ġhe": 281,
      "Ġm": 282,
      "Ġp": 283,
      "Ġwas": 284,
      "om": 285,
      "ĠT": 286,
      "Ġo": 287,
      "ay": 288,
      "ar": 289,
      "is": 290,
      "ing": 291,
      "il": 292,
      "Ġg": 293,
      "id": 294,
      "at": 295,
      "en": 296,
      "Ġn": 297,
      "Ġsa": 298,
      "Ġha": 299,
      "ĠS": 300,
      "ĠThe": 301,
      "an": 302,
      "im": 303,
      "or": 304,
      "on": 305,
      "Ġit": 306,
      "Ġth": 307,
      "ll": 308,
      "le": 309,
      "ĠH": 310,
      "Ġher": 311,
      "ot": 312,
      "et": 313,
      "ir": 314,
      "ĠShe": 315,
      "ĠHe": 316,
      "es": 317,
      "Ġin": 318,
      "ver": 319,
      "ut": 320,
      "ow": 321,
      "ĠThey": 322,
      "ck": 323,
      "Ġe": 324,
      "Ġu": 325,
      "ld": 326,
      "ily": 327,
      "Ġy": 328,
      "oo": 329,
      "Ġsaid": 330,
      "ig": 331,
      "Ġr": 332,
      "am": 333,
      "Ġbe": 334,
      "Ġst": 335,
      "Ġ\"": 336,
      "ce": 337,
      "ĠI": 338,
      "Ġshe": 339,
      "ke": 340,
      "pp": 341,
      "ith": 342,
      "Lily": 343,
      "ve": 344,
      "Ġwith": 345,
      "On": 346,
      "Ġon": 347,
      "Ġof": 348,
      "ri": 349,
      "ked": 350,
      "Ġhis": 351,
      "Ġyou": 352,
      "Ġpl": 353,
      "Ġso": 354,
      "nt": 355,
      "very": 356,
      "ad": 357,
      "Ġday": 358,
      "Ġthat": 359,
      "Ġup": 360,
      "ĠLily": 361,
      "Ġplay": 362,
      "Ġhad": 363,
      "Ġthey": 364,
      "st": 365,
      "Ġwe": 366,
      "Ġmom": 367,
      "Ġfor": 368,
      "el": 369,
      "my": 370,
      "ould": 371,
      "un": 372,
      "ĠB": 373,
      "'s": 374,
      "The": 375,
      "Ġli": 376,
      "Ġhapp": 377,
      "ch": 378,
      "ent": 379,
      "itt": 380,
      "Ġwant": 381,
      "her": 382,
      "Ġsh": 383,
      "out": 384,
      "Ġdo": 385,
      "Ġnot": 386,
      "Ġvery": 387,
      "ome": 388,
      "ly": 389,
      "all": 390,
      "ound": 391,
      "end": 392,
      "ittle": 393,
      "ime": 394,
      "se": 395,
      "Ġwh": 396,
      "Ġk": 397,
      "Ġlittle": 398,
      "Ġtime": 399,
      "Ġthere": 400,
      "al": 401,
      "Ġne": 402,
      "ht": 403,
      "Ġhappy": 404,
      "Ġbig": 405,
      "Ġre": 406,
      "ĠM": 407,
      "Ġis": 408,
      "ĠIt": 409,
      "Ġsm": 410,
      "Ġbut": 411,
      "ĠĊ": 412,
      "ra": 413,
      "Ġsaw": 414,
      "riend": 415,
      "Ġfriend": 416,
      "Ġan": 417,
      "ry": 418,
      "Ġas": 419,
      "ack": 420,
      ".\"": 421,
      "One": 422,
      "ide": 423,
      "ake": 424,
      "'t": 425,
      "ved": 426,
      "ter": 427,
      "ug": 428,
      "Once": 429,
      "Ġlo": 430,
      "Ġloo": 431,
      "Ġwere": 432,
      "ore": 433,
      "!\"": 434,
      "ec": 435,
      "Ġhim": 436,
      "Ġbo": 437,
      "Ġtoo": 438,
      "ĠTim": 439,
      "Ġse": 440,
      "Ġgo": 441,
      "irl": 442,
      "Ġupon": 443,
      "Ġwanted": 444,
      "Ġj": 445,
      "ard": 446,
      "Ġgirl": 447,
      "ill": 448,
      "Ġare": 449,
      "Ġthem": 450,
      "Ġout": 451,
      "Ġat": 452,
      "Ġtheir": 453,
      "ind": 454,
      "Ġsp": 455,
      "way": 456,
      "fu": 457,
      "Ġdid": 458,
      "ur": 459,
      "Ġcould": 460,
      "ĠA": 461,
      "hen": 462,
      "Ġsmil": 463,
      "ain": 464,
      "Ġhave": 465,
      "art": 466,
      "Ġwent": 467,
      "hed": 468,
      "Ġex": 469,
      "rom": 470,
      "ic": 471,
      "round": 472,
      "lp": 473,
      "Ġnam": 474,
      "Ġcan": 475,
      "ful": 476,
      "Ġfriends": 477,
      "ĠBen": 478,
      "hing": 479,
      "Ġhelp": 480,
      "Ġkn": 481,
      "Ġall": 482,
      "ĠJ": 483,
      "ood": 484,
      "ight": 485,
      "?\"": 486,
      "um": 487,
      "ark": 488,
      "one": 489,
      "Ġback": 490,
      "Ġfun": 491,
      "Ġcl": 492,
      "are": 493,
      "Ġsay": 494,
      "Ġle": 495,
      "You": 496,
      "Ġnamed": 497,
      "Ġno": 498,
      "ĠTom": 499,
      "Ġloved": 500,
      "op": 501,
      "elt": 502,
      "ĠTimmy": 503,
      "ĠOne": 504,
      "oug": 505,
      "Ġal": 506,
      "Ġsc": 507,
      "side": 508,
      "Ġfelt": 509,
      "Ġtoy": 510,
      "ick": 511,
      "Ġsmiled": 512,
      "Ġman": 513,
      "Ġfe": 514,
      "Ġasked": 515,
      "Ġsee": 516,
      "ame": 517,
      "Ġlooked": 518,
      "Ġlike": 519,
      "Ġaround": 520,
      "Ġsome": 521,
      "omet": 522,
      "ure": 523,
      "Ġro": 524,
      "Ġboy": 525,
      "Ġbr": 526,
      "get": 527,
      "Ġwould": 528,
      "Ġme": 529,
      "ĠW": 530,
      "Ġbir": 531,
      "ong": 532,
      "ice": 533,
      "Ġstart": 534,
      "ss": 535,
      "Ġsomet": 536,
      "Ġbird": 537,
      "ings": 538,
      "Ġfa": 539,
      "Ġwor": 540,
      "Ġag": 541,
      "ade": 542,
      "Ġmake": 543,
      "Ġwhat": 544,
      "Ġtre": 545,
      "dd": 546,
      "king": 547,
      "gether": 548,
      "own": 549,
      "ĠBut": 550,
      "Ġaway": 551,
      "Ġran": 552,
      "ag": 553,
      "Ġstarted": 554,
      ",\"": 555,
      "ĠYou": 556,
      "oud": 557,
      "Ġmade": 558,
      "ared": 559,
      "ie": 560,
      "Ġtogether": 561,
      "Ã¢": 562,
      "âĤ": 563,
      "âĤ¬": 564,
      "Ġco": 565,
      "Ġsays": 566,
      "Ġpark": 567,
      "Ġsomething": 568,
      "if": 569,
      "Ġcar": 570,
      "ther": 571,
      "ited": 572,
      "Ġsad": 573,
      "Ġput": 574,
      "Ġnew": 575,
      "Ġother": 576,
      "Ġpr": 577,
      "ble": 578,
      "Ġagain": 579,
      "Ġfrom": 580,
      "Ġexc": 581,
      "Ġhug": 582,
      "Ġmu": 583,
      "Ġhome": 584,
      "Ġla": 585,
      "ell": 586,
      "Ġwhen": 587,
      "Ġwho": 588,
      "ook": 589,
      "Ġgood": 590,
      "est": 591,
      "ried": 592,
      "Ġfound": 593,
      "ĠL": 594,
      "Ġthen": 595,
      "ach": 596,
      "ep": 597,
      "Ġdec": 598,
      "Ġfl": 599,
      "pped": 600,
      "Ġch": 601,
      "as": 602,
      "Ġplaying": 603,
      "ought": 604,
      "Ġwal": 605,
      "Ġget": 606,
      "qu": 607,
      "ally": 608,
      "hat": 609,
      "ĠE": 610,
      "Ġthings": 611,
      "Ġsw": 612,
      "uck": 613,
      "Ġgot": 614,
      "pl": 615,
      "ous": 616,
      "Ġliked": 617,
      "nn": 618,
      "Ġevery": 619,
      "Ġdecid": 620,
      "Ġexcited": 621,
      "ave": 622,
      "Ġdecided": 623,
      "ro": 624,
      "Ġcame": 625,
      "ax": 626,
      "Ġbl": 627,
      "Ġbec": 628,
      "Ġdown": 629,
      "Ġyour": 630,
      "Ġfind": 631,
      "Ġcare": 632,
      "Ġdog": 633,
      "ust": 634,
      "Ġscared": 635,
      "Ġone": 636,
      "Ġfeel": 637,
      "Ġv": 638,
      "Ġthan": 639,
      "ist": 640,
      "ouse": 641,
      "ny": 642,
      "Ġdad": 643,
      "ĠD": 644,
      "ap": 645,
      "ĠMom": 646,
      "Ġab": 647,
      "arn": 648,
      "ara": 649,
      "ways": 650,
      "ue": 651,
      "Ġdidn": 652,
      "nna": 653,
      "Ġgra": 654,
      "udd": 655,
      "Ġmy": 656,
      "Ġalways": 657,
      "ant": 658,
      "Ġtook": 659,
      "ers": 660,
      "They": 661,
      "Ġke": 662,
      "us": 663,
      "Ġmommy": 664,
      "ess": 665,
      "ĠF": 666,
      "fe": 667,
      "Ġabout": 668,
      "our": 669,
      "Ġlot": 670,
      "Ġtoys": 671,
      "Ġtree": 672,
      "Ġpo": 673,
      "Ġkne": 674,
      "Ġball": 675,
      "Ġlook": 676,
      "Ġwill": 677,
      "nder": 678,
      "Ġoutside": 679,
      "ite": 680,
      "Ġthought": 681,
      "eci": 682,
      "ened": 683,
      "Ġta": 684,
      "Ġlearn": 685,
      "bb": 686,
      "ise": 687,
      "ched": 688,
      "Ġmore": 689,
      "Ġpre": 690,
      "Ġknow": 691,
      "Ġho": 692,
      "Ġint": 693,
      "ĠSam": 694,
      "ged": 695,
      "ecial": 696,
      "Ġspecial": 697,
      "Ġold": 698,
      "Ġtake": 699,
      "Ġsor": 700,
      "ĠMax": 701,
      "Ġlaug": 702,
      "Ġpe": 703,
      "Ġknew": 704,
      "ive": 705,
      "Ġcat": 706,
      "ma": 707,
      "fter": 708,
      "Ġhow": 709,
      "Ġany": 710,
      "udden": 711,
      "au": 712,
      "Ġshow": 713,
      "Ġtr": 714,
      "Ġmuch": 715,
      "ia": 716,
      "uddenly": 717,
      "Ġsorry": 718,
      "and": 719,
      "Ġsl": 720,
      "ink": 721,
      "But": 722,
      "ish": 723,
      "Ġrun": 724,
      "Ġhouse": 725,
      "Ġtw": 726,
      "ven": 727,
      "Ġtold": 728,
      "Ġor": 729,
      "Ġsk": 730,
      "Ġop": 731,
      "Ġhand": 732,
      "Ġsun": 733,
      "Ġinside": 734,
      "Ġgave": 735,
      "Ġtried": 736,
      "Ġmo": 737,
      "Ġclo": 738,
      "Ġinto": 739,
      "Ġwater": 740,
      "Ġproud": 741,
      "ank": 742,
      "Ġcouldn": 743,
      "Ġover": 744,
      "Ġqu": 745,
      "ause": 746,
      "ate": 747,
      "Ġnever": 748,
      "ump": 749,
      "ty": 750,
      "other": 751,
      "ĠEvery": 752,
      "Ġen": 753,
      "Ġeat": 754,
      "Ġif": 755,
      "ace": 756,
      "Ġroom": 757,
      "Ġplayed": 758,
      "etter": 759,
      "Ġheard": 760,
      "ge": 761,
      "Ġexpl": 762,
      "Ġeach": 763,
      "Ġpick": 764,
      "Ġpret": 765,
      "ion": 766,
      "Ġthis": 767,
      "by": 768,
      "here": 769,
      "dy": 770,
      "ĠWe": 771,
      "Tom": 772,
      "ak": 773,
      "Ġbecause": 774,
      "ĠAnna": 775,
      "Ġhugged": 776,
      "Ġstr": 777,
      "Ġcom": 778,
      "Ġwat": 779,
      "Ġgre": 780,
      "Ġbox": 781,
      "Ġjust": 782,
      "Ġnice": 783,
      "ile": 784,
      "ĠSara": 785,
      "oth": 786,
      "Ġneed": 787,
      "iz": 788,
      "Mom": 789,
      "Ġjo": 790,
      "Ġoff": 791,
      "Ġmany": 792,
      "Ġlong": 793,
      "Ġbear": 794,
      "Ġsmall": 795,
      "Ġfo": 796,
      "Ġbu": 797,
      "ving": 798,
      "Ġsn": 799,
      "ough": 800,
      "Ġlearned": 801,
      "'m": 802,
      "ort": 803,
      "ine": 804,
      "Ġunt": 805,
      "uc": 806,
      "imal": 807,
      "Ġanimal": 808,
      "gry": 809,
      "Ġtry": 810,
      "Ġbetter": 811,
      "ild": 812,
      "sel": 813,
      "Ġuntil": 814,
      "sed": 815,
      "Ġlove": 816,
      "urt": 817,
      "ĠJack": 818,
      "ft": 819,
      "Ġim": 820,
      "em": 821,
      "Ġdre": 822,
      "Ġend": 823,
      "Ġkind": 824,
      "Ġcall": 825,
      "Ġcle": 826,
      "ber": 827,
      "Ġflow": 828,
      "Ġad": 829,
      "Ġbest": 830,
      "urn": 831,
      "vent": 832,
      "ĠHer": 833,
      "He": 834,
      "aut": 835,
      "ĠAnd": 836,
      "ĠSo": 837,
      "ars": 838,
      "Ġfi": 839,
      "Ġpu": 840,
      "ady": 841,
      "Ġcareful": 842,
      "Ġsky": 843,
      "Ġfast": 844,
      "Ġgr": 845,
      "ves": 846,
      "Ġthanked": 847,
      "Ġeven": 848,
      "Ġbeaut": 849,
      "ĠC": 850,
      "Yes": 851,
      "Ġbra": 852,
      "urp": 853,
      "arden": 854,
      "ĠJo": 855,
      "Ġgarden": 856,
      "Ġdon": 857,
      "pt": 858,
      "lly": 859,
      "Ġche": 860,
      "Ġte": 861,
      "ĠMia": 862,
      "Ġby": 863,
      "self": 864,
      "Th": 865,
      "Ġlots": 866,
      "ies": 867,
      "iny": 868,
      "Ġgl": 869,
      "Ġloud": 870,
      "Ġlaughed": 871,
      "Ġfam": 872,
      "Ġjump": 873,
      "ase": 874,
      "Ġbeauti": 875,
      "lew": 876,
      "Ġlist": 877,
      "Ġstill": 878,
      "wn": 879,
      "Ġbeautiful": 880,
      "ĠFrom": 881,
      "rm": 882,
      "Ġhard": 883,
      "Ġway": 884,
      "Ġcome": 885,
      "Ġhurt": 886,
      "Ġwo": 887,
      "Ġanimals": 888,
      "It": 889,
      "ct": 890,
      "Ġra": 891,
      "ĠHis": 892,
      "ast": 893,
      "hes": 894,
      "Ġcol": 895,
      "Ġunder": 896,
      "ĠThen": 897,
      "Ġrem": 898,
      "Åĵ": 899,
      "ning": 900,
      "Ġsafe": 901,
      "Ġstay": 902,
      "ect": 903,
      "be": 904,
      "Ġlet": 905,
      "Ġlived": 906,
      "Ġboth": 907,
      "Tim": 908,
      "ool": 909,
      "Ġcu": 910,
      "ople": 911,
      "Ġimp": 912,
      "Ġbrave": 913,
      "Ġfamily": 914,
      "Ġits": 915,
      "kay": 916,
      "Ġbad": 917,
      "ob": 918,
      "Ġdan": 919,
      "Ġred": 920,
      "Ġstor": 921,
      "ished": 922,
      "Ġbook": 923,
      "ane": 924,
      "Ġtwo": 925,
      "When": 926,
      "Ġfin": 927,
      "ree": 928,
      "Ġpeople": 929,
      "ucy": 930,
      "Ġshould": 931,
      "urpr": 932,
      "ock": 933,
      "Ġcalled": 934,
      "ĠÃ¢": 935,
      "Ġflew": 936,
      "Ġfly": 937,
      "Ġpic": 938,
      "igh": 939,
      "Ġwalked": 940,
      "Ġsurpr": 941,
      "Ġangry": 942,
      "Ġsoon": 943,
      "Ġfore": 944,
      "ĠWhen": 945,
      "Ġdoll": 946,
      "xt": 947,
      "led": 948,
      "Ġkept": 949,
      "Ġclean": 950,
      "Ġshare": 951,
      "fore": 952,
      "ised": 953,
      "Ġrock": 954,
      "Ġpretty": 955,
      "No": 956,
      "Ġdra": 957,
      "hn": 958,
      "Ġgoing": 959,
      "ip": 960,
      "Ġdoor": 961,
      "Let": 962,
      "Ġcon": 963,
      "ĠP": 964,
      "Ġkeep": 965,
      "Ġground": 966,
      "Ġshiny": 967,
      "Ġopened": 968,
      "dded": 969,
      "Ġadvent": 970,
      "ummy": 971,
      "Ġreal": 972,
      "Ġnow": 973,
      "Ġwind": 974,
      "Ġcry": 975,
      "illy": 976,
      "Ġexplore": 977,
      "age": 978,
      "Ġcre": 979,
      "Ġsto": 980,
      "Ben": 981,
      "Ġide": 982,
      "Ġbefore": 983,
      "Ġnoise": 984,
      "Ġfr": 985,
      "Ġcolor": 986,
      "Ġturn": 987,
      "ary": 988,
      "les": 989,
      "so": 990,
      "Ġfar": 991,
      "ture": 992,
      "Ġalso": 993,
      "Ġpicked": 994,
      "Ġfeeling": 995,
      "ied": 996,
      "Ġwhile": 997,
      "Ġey": 998,
      "Ġidea": 999,
      "imb": 1000,
      "oon": 1001,
      "oy": 1002,
      "Ġclimb": 1003,
      "Ġnext": 1004,
      "ff": 1005,
      "thing": 1006,
      "Ġbed": 1007,
      "Ġun": 1008,
      "Ġwr": 1009,
      "What": 1010,
      "eet": 1011,
      "Ġthr": 1012,
      "Ġhas": 1013,
      "Ġwalking": 1014,
      "ĠLucy": 1015,
      "Ġsmile": 1016,
      "uch": 1017,
      "Ġpicture": 1018,
      "That": 1019,
      "ger": 1020,
      "iced": 1021,
      "Ġtruck": 1022,
      "Ġnodded": 1023,
      "Ġadventure": 1024,
      "th": 1025,
      "Ġma": 1026,
      "aybe": 1027,
      "TM": 1028,
      "kes": 1029,
      "Ġbeing": 1030,
      "ember": 1031,
      "ĠG": 1032,
      "ted": 1033,
      "Thank": 1034,
      "ious": 1035,
      "joy": 1036,
      "ac": 1037,
      "Ġclos": 1038,
      "ting": 1039,
      "Ġgive": 1040,
      "Ġfood": 1041,
      "Ġtra": 1042,
      "Ġlooking": 1043,
      "Ġwait": 1044,
      "Ġlisten": 1045,
      "ĠDad": 1046,
      "Ġstopped": 1047,
      "Ġblue": 1048,
      "ized": 1049,
      "ught": 1050,
      "Ġtow": 1051,
      "Ġremember": 1052,
      "Ġbre": 1053,
      "Ġdif": 1054,
      "Ġafter": 1055,
      "Ġbro": 1056,
      "Ġhands": 1057,
      "ĠSuddenly": 1058,
      "Ġnoticed": 1059,
      "Ġthink": 1060,
      "maz": 1061,
      "Ġeyes": 1062,
      "Ġamaz": 1063,
      "Ġdel": 1064,
      "Ġwalk": 1065,
      "able": 1066,
      "Ġquick": 1067,
      "Ġown": 1068,
      "Ġenjoy": 1069,
      "Ġforest": 1070,
      "She": 1071,
      "Ġdis": 1072,
      "Ġslide": 1073,
      "Ġgreat": 1074,
      "Ġever": 1075,
      "Ġshowed": 1076,
      "Ġrepl": 1077,
      "Ġwatch": 1078,
      "irst": 1079,
      "Ġstrong": 1080,
      "Ġflowers": 1081,
      "Ġapp": 1082,
      "bbit": 1083,
      "Ġeveryone": 1084,
      "Ġimport": 1085,
      "Ġwonder": 1086,
      "Ġrain": 1087,
      "Ġfish": 1088,
      "Ġwork": 1089,
      "llow": 1090,
      "Ġvo": 1091,
      "Ġac": 1092,
      "Ġtal": 1093,
      "Suddenly": 1094,
      "Ġboat": 1095,
      "Ġnear": 1096,
      "Ġstick": 1097,
      "Ġask": 1098,
      "ĠSp": 1099,
      "Ġokay": 1100,
      "Ġhead": 1101,
      "Ġimportant": 1102,
      "Ġwhere": 1103,
      "Ġshout": 1104,
      "Ġmean": 1105,
      "Ġrabbit": 1106,
      "gan": 1107,
      "Ġright": 1108,
      "Ġplace": 1109,
      "Ġus": 1110,
      "bye": 1111,
      "Ġsound": 1112,
      "bbed": 1113,
      "Ġquickly": 1114,
      "Ġyell": 1115,
      "Ġfollow": 1116,
      "Ġreplied": 1117,
      "Ġuse": 1118,
      "Ġbright": 1119,
      "lease": 1120,
      "ĠBob": 1121,
      "Ġwatched": 1122,
      "Ġdress": 1123,
      "Ġde": 1124,
      "fere": 1125,
      "ange": 1126,
      "Ġbecame": 1127,
      "day": 1128,
      "ĠN": 1129,
      "Ġdiffere": 1130,
      "ath": 1131,
      "Ġmor": 1132,
      "ered": 1133,
      "Ġar": 1134,
      "co": 1135,
      "Ġsure": 1136,
      "We": 1137,
      "ndma": 1138,
      "Ġcake": 1139,
      "Ġchild": 1140,
      "Ġhigh": 1141,
      "Ġcuri": 1142,
      "Ġbeen": 1143,
      "ĠR": 1144,
      "Ġmag": 1145,
      "ount": 1146,
      "Ġstore": 1147,
      "Ġour": 1148,
      "Ġwarm": 1149,
      "Ġye": 1150,
      "aught": 1151,
      "Ġsqu": 1152,
      "Ġhop": 1153,
      "Ġface": 1154,
      "Ġgoodbye": 1155,
      "Ġforg": 1156,
      "more": 1157,
      "Ġdifferent": 1158,
      "Ġanymore": 1159,
      "Ġcloser": 1160,
      "Ġdoes": 1161,
      "Anna": 1162,
      "Look": 1163,
      "So": 1164,
      "leep": 1165,
      "ng": 1166,
      "Ġcurious": 1167,
      "Ġcook": 1168,
      "Ġtell": 1169,
      "Ġam": 1170,
      "Ġvoice": 1171,
      "Ġnight": 1172,
      "itc": 1173,
      "ila": 1174,
      "imes": 1175,
      "Ġpain": 1176,
      "ĠSue": 1177,
      "Ġbel": 1178,
      "ĠSpot": 1179,
      "ired": 1180,
      "Ġbutter": 1181,
      "Ġopen": 1182,
      "ached": 1183,
      "Ġfav": 1184,
      "Ġpa": 1185,
      "Her": 1186,
      "Ġhelped": 1187,
      "Ġfirst": 1188,
      "Ġfell": 1189,
      "ull": 1190,
      "Ġcont": 1191,
      "Sara": 1192,
      "ĠMommy": 1193,
      "Ġhappened": 1194,
      "Ġz": 1195,
      "ĠTh": 1196,
      "Ġlea": 1197,
      "Ġthree": 1198,
      "Ġsees": 1199,
      "iss": 1200,
      "Can": 1201,
      "Ġkitc": 1202,
      "Ġkitchen": 1203,
      "Jo": 1204,
      "Ġpull": 1205,
      "Ġfire": 1206,
      "Ġflo": 1207,
      "Ġbus": 1208,
      "Ġbirds": 1209,
      "Ġblock": 1210,
      "Ġgrabbed": 1211,
      "Ġsweet": 1212,
      "After": 1213,
      "Ġstory": 1214,
      "Ġhere": 1215,
      "Ġonly": 1216,
      "Ġkid": 1217,
      "Ġbrother": 1218,
      "Ġdr": 1219,
      "Ġsand": 1220,
      "unny": 1221,
      "Ġglad": 1222,
      "Ġbit": 1223,
      "Ġru": 1224,
      "Ġgrass": 1225,
      "Ġrealized": 1226,
      "ppy": 1227,
      "ater": 1228,
      "Ġjumped": 1229,
      "orn": 1230,
      "Ġbeh": 1231,
      "Ġmon": 1232,
      "Ġper": 1233,
      "Ġdraw": 1234,
      "Ġstop": 1235,
      "Ġreached": 1236,
      "Ġcra": 1237,
      "ĠEveryone": 1238,
      "Ġsing": 1239,
      "ins": 1240,
      "Ġhaving": 1241,
      "Ġcr": 1242,
      "Ġmess": 1243,
      "zy": 1244,
      "ĠDo": 1245,
      "nts": 1246,
      "Ġrest": 1247,
      "uff": 1248,
      "Ġba": 1249,
      "Ġthrough": 1250,
      "Ġtri": 1251,
      "Ġprin": 1252,
      "Ġate": 1253,
      "ĠAs": 1254,
      "ĠJane": 1255,
      "Ġsoft": 1256,
      "Ġless": 1257,
      "Ġpap": 1258,
      "isy": 1259,
      "Ġready": 1260,
      "Ġyummy": 1261,
      "where": 1262,
      "Ġworld": 1263,
      "'re": 1264,
      "Ġhat": 1265,
      "akes": 1266,
      "Ġgame": 1267,
      "Ġfix": 1268,
      "Ġreally": 1269,
      "ĠLet": 1270,
      "Ġlady": 1271,
      "Ġshouted": 1272,
      "Ġpare": 1273,
      "Ġfavor": 1274,
      "Ġbegan": 1275,
      "Ġfavorite": 1276,
      "Ġhimself": 1277,
      "Ġunderst": 1278,
      "Ġcut": 1279,
      "Ġtired": 1280,
      "ĠSarah": 1281,
      "Ġmagic": 1282,
      "Ġduck": 1283,
      "fully": 1284,
      "Ġpretend": 1285,
      "ken": 1286,
      "Ġused": 1287,
      "Ġmum": 1288,
      "Ġtast": 1289,
      "ather": 1290,
      "Ġbutterf": 1291,
      "sh": 1292,
      "Ġthing": 1293,
      "Ġdone": 1294,
      "Ġworry": 1295,
      "Ġcoming": 1296,
      "ign": 1297,
      "Ġmaking": 1298,
      "illed": 1299,
      "Ġcatch": 1300,
      "ĠCan": 1301,
      "Ġkids": 1302,
      "Ġfunny": 1303,
      "Ġname": 1304,
      "Ġpus": 1305,
      "eddy": 1306,
      "Wow": 1307,
      "Ġseen": 1308,
      "As": 1309,
      "ster": 1310,
      "Ġpond": 1311,
      "Ġlooks": 1312,
      "Ġcars": 1313,
      "ĠThat": 1314,
      "Ġcried": 1315,
      "Ġfro": 1316,
      "Ġste": 1317,
      "Timmy": 1318,
      "Ġanother": 1319,
      "ient": 1320,
      "Ġtop": 1321,
      "air": 1322,
      "olly": 1323,
      "Ġwhy": 1324,
      "Mommy": 1325,
      "Ġprom": 1326,
      "Ġwaved": 1327,
      "Ġflower": 1328,
      "Ġbag": 1329,
      "Ġpart": 1330,
      "Ġbunny": 1331,
      "Ġhair": 1332,
      "Ġparents": 1333,
      "Ġtouch": 1334,
      "bo": 1335,
      "ards": 1336,
      "Don": 1337,
      "Ġpaper": 1338,
      "Ġgi": 1339,
      "Ġdin": 1340,
      "Ġlight": 1341,
      "Ġgreen": 1342,
      "Ġdri": 1343,
      "Ġcool": 1344,
      "Ġdelic": 1345,
      "Ġdro": 1346,
      "Ġlesson": 1347,
      "Ġhole": 1348,
      "Ġswim": 1349,
      "ĠJohn": 1350,
      "hy": 1351,
      "ĠJoe": 1352,
      "Ġtrees": 1353,
      "iver": 1354,
      "Ġsurprise": 1355,
      "Ġyellow": 1356,
      "Ġremembered": 1357,
      "Ġbehind": 1358,
      "Ġfloor": 1359,
      "oney": 1360,
      "Ġhold": 1361,
      "ely": 1362,
      "ued": 1363,
      "Ġworked": 1364,
      "mer": 1365,
      "Ġfull": 1366,
      "Ġthank": 1367,
      "Ġrunning": 1368,
      "rel": 1369,
      "Ġhopped": 1370,
      "ation": 1371,
      "Ġsleep": 1372,
      "andy": 1373,
      "Ġwished": 1374,
      "ssed": 1375,
      "Ġspot": 1376,
      "Ġsmell": 1377,
      "Ġset": 1378,
      "ike": 1379,
      "Ġblocks": 1380,
      "Ġcold": 1381,
      "Ġlost": 1382,
      "Ġsat": 1383,
      "Ġhappily": 1384,
      "Ġread": 1385,
      "Ġwear": 1386,
      "Ġdoing": 1387,
      "Ġneeded": 1388,
      "Ġdream": 1389,
      "Ġdark": 1390,
      "Ġmouse": 1391,
      "Ġstre": 1392,
      "Ġbow": 1393,
      "aisy": 1394,
      "Ġwood": 1395,
      "Ġslow": 1396,
      "Ġlaugh": 1397,
      "ren": 1398,
      "Ġbutterfly": 1399,
      "Ġsho": 1400,
      "Ġcarefully": 1401,
      "Sam": 1402,
      "Ġtall": 1403,
      "Ġyears": 1404,
      "Ġleft": 1405,
      "Ġ-": 1406,
      "Ġlikes": 1407,
      "Ġcla": 1408,
      "Ġsurprised": 1409,
      "Ġhill": 1410,
      "Ġwindow": 1411,
      "Ġfrog": 1412,
      "Ġswing": 1413,
      "Ġenjoyed": 1414,
      "Ġheld": 1415,
      "Ġfinished": 1416,
      "uit": 1417,
      "Ġsnow": 1418,
      "Ġhear": 1419,
      "Ġmove": 1420,
      "ĠAfter": 1421,
      "Ġbuy": 1422,
      "ens": 1423,
      "\".": 1424,
      "Ġwrong": 1425,
      "Ġice": 1426,
      "Ġperf": 1427,
      "John": 1428,
      "ined": 1429,
      "Ġfollowed": 1430,
      "Ġair": 1431,
      "inally": 1432,
      "Ġarri": 1433,
      "Ġlion": 1434,
      "ul": 1435,
      "ĠBenny": 1436,
      "Ġfair": 1437,
      "Ġherself": 1438,
      "Ġhid": 1439,
      "ĠIn": 1440,
      "Ġanything": 1441,
      "Ġcontin": 1442,
      "Hell": 1443,
      "Hello": 1444,
      "Ġhun": 1445,
      "Ġclose": 1446,
      "Ġdir": 1447,
      "Ġchildren": 1448,
      "Ġbug": 1449,
      "Ġfriendly": 1450,
      "cess": 1451,
      "Ġcast": 1452,
      "Ġrel": 1453,
      "Ġtable": 1454,
      "asure": 1455,
      "TMs": 1456,
      "Ġbuild": 1457,
      "ĠSally": 1458,
      "Ġarm": 1459,
      "Ġwonderful": 1460,
      "Ġforgot": 1461,
      "Ġmight": 1462,
      "Ġarrived": 1463,
      "ds": 1464,
      "ield": 1465,
      "Ġunderstand": 1466,
      "Ġdelicious": 1467,
      "Ġagre": 1468,
      "Ġel": 1469,
      "Ġtight": 1470,
      "Ġhot": 1471,
      "Ġplease": 1472,
      "Ġcolors": 1473,
      "Ġgrandma": 1474,
      "Ġsomeone": 1475,
      "ner": 1476,
      "Ġsong": 1477,
      "Ġcount": 1478,
      "Ġbooks": 1479,
      "Ġfilled": 1480,
      "Ġgone": 1481,
      "Ġcontinued": 1482,
      "Ġbroken": 1483,
      "Ġable": 1484,
      "Then": 1485,
      "Ġleaves": 1486,
      "Ġscre": 1487,
      "ĠNow": 1488,
      "Ġgent": 1489,
      "av": 1490,
      "Ġelse": 1491,
      "ĠThere": 1492,
      "Ġwants": 1493,
      "Ġcreat": 1494,
      "ask": 1495,
      "sp": 1496,
      "ĠLila": 1497,
      "Ġvis": 1498,
      "Ġwall": 1499,
      "lf": 1500,
      "From": 1501,
      "ĠEm": 1502,
      "ey": 1503,
      "Ġyes": 1504,
      "Ġbaby": 1505,
      "uffy": 1506,
      "Ġpink": 1507,
      "atter": 1508,
      "Ġbreak": 1509,
      "room": 1510,
      "man": 1511,
      "ich": 1512,
      "Ġpoin": 1513,
      "gon": 1514,
      "Ġamazing": 1515,
      "'ll": 1516,
      "ries": 1517,
      "Jack": 1518,
      "Ġmar": 1519,
      "Ġgetting": 1520,
      "ĠMaybe": 1521,
      "icy": 1522,
      "ĠDaisy": 1523,
      "Ġenough": 1524,
      "Ġpictures": 1525,
      "Ġfight": 1526,
      "OK": 1527,
      "Ġwhite": 1528,
      "oup": 1529,
      "Ġcomp": 1530,
      "Ġcastle": 1531,
      "Ġdinner": 1532,
      "Ġagreed": 1533,
      "row": 1534,
      "irrel": 1535,
      "Ġmus": 1536,
      "Ġmoment": 1537,
      "ross": 1538,
      "Ġmother": 1539,
      "Ġstayed": 1540,
      "Ġfall": 1541,
      "ash": 1542,
      "Ġmorning": 1543,
      "Ġcookies": 1544,
      "ced": 1545,
      "Ġscary": 1546,
      "Ġtrying": 1547,
      "Ġfinally": 1548,
      "Ġclimbed": 1549,
      "Ġfur": 1550,
      "Ġsometimes": 1551,
      "Ġsail": 1552,
      "Ġothers": 1553,
      "ĠK": 1554,
      "Ġwet": 1555,
      "Ġpi": 1556,
      "Ġju": 1557,
      "Ġsmiles": 1558,
      "Ġhungry": 1559,
      "ctor": 1560,
      "Ġsquirrel": 1561,
      "Ġtalk": 1562,
      "ence": 1563,
      "ons": 1564,
      "Ġclot": 1565,
      "Ġmet": 1566,
      "Ġclothes": 1567,
      "At": 1568,
      "Ġbrought": 1569,
      "ama": 1570,
      "ister": 1571,
      "red": 1572,
      "oom": 1573,
      "Ġturned": 1574,
      "ĠThis": 1575,
      "Ġroll": 1576,
      "Ġperfect": 1577,
      "Ġdaddy": 1578,
      "lc": 1579,
      "Ġmakes": 1580,
      "Ġcream": 1581,
      "ĠBilly": 1582,
      "This": 1583,
      "Ġfew": 1584,
      "Ġlistened": 1585,
      "oring": 1586,
      "Ġtail": 1587,
      "ee": 1588,
      "Ġeverything": 1589,
      "ance": 1590,
      "Ġwasn": 1591,
      "Ġspl": 1592,
      "Ġstrange": 1593,
      "rot": 1594,
      "Ġsear": 1595,
      "Ġballoon": 1596,
      "Ġbeach": 1597,
      "Ġpol": 1598,
      "Ġpuppy": 1599,
      "Ġjoy": 1600,
      "Ġsit": 1601,
      "ated": 1602,
      "ower": 1603,
      "Ġride": 1604,
      "der": 1605,
      "His": 1606,
      "zz": 1607,
      "Ġwaited": 1608,
      "Ġspark": 1609,
      "ĠJen": 1610,
      "Ġthre": 1611,
      "ĠWhat": 1612,
      "Ġmusic": 1613,
      "wl": 1614,
      "Ġamazed": 1615,
      "ever": 1616,
      "ĠGra": 1617,
      "Ġalone": 1618,
      "ĠTommy": 1619,
      "os": 1620,
      "amp": 1621,
      "pping": 1622,
      "Ġvisit": 1623,
      "Ġsilly": 1624,
      "Ġdanger": 1625,
      "ucky": 1626,
      "Ġteddy": 1627,
      "key": 1628,
      "ott": 1629,
      "Ġasks": 1630,
      "Ġpet": 1631,
      "Ġwoods": 1632,
      "ĠTo": 1633,
      "ope": 1634,
      "Ġdeep": 1635,
      "ang": 1636,
      "Ġhide": 1637,
      "eter": 1638,
      "Ġgrow": 1639,
      "Oh": 1640,
      "Ġleave": 1641,
      "Ġsister": 1642,
      "Ġside": 1643,
      "Ġpie": 1644,
      "ugg": 1645,
      "Ġcloud": 1646,
      "amed": 1647,
      "Ġflying": 1648,
      "med": 1649,
      "Ġlake": 1650,
      "Ġpulled": 1651,
      "Max": 1652,
      "Ġfox": 1653,
      "Ġpromised": 1654,
      "Ġpat": 1655,
      "gg": 1656,
      "ix": 1657,
      "ĠFl": 1658,
      "Ġdance": 1659,
      "Ġtowards": 1660,
      "eces": 1661,
      "Ġtreasure": 1662,
      "me": 1663,
      "Ġsec": 1664,
      "Ġfield": 1665,
      "ames": 1666,
      "ph": 1667,
      "Ġpieces": 1668,
      "ises": 1669,
      "Ġplan": 1670,
      "Maybe": 1671,
      "up": 1672,
      "Ġruns": 1673,
      "Ġshared": 1674,
      "Ġbigger": 1675,
      "cket": 1676,
      "ained": 1677,
      "Ġve": 1678,
      "Ġwon": 1679,
      "Ġthinks": 1680,
      "Ġem": 1681,
      "Ġland": 1682,
      "Ġmoral": 1683,
      "thy": 1684,
      "Ġtreat": 1685,
      "Okay": 1686,
      "Ġowner": 1687,
      "Ġliving": 1688,
      "Ġpen": 1689,
      "Ġele": 1690,
      "Ġbran": 1691,
      "Ġgrate": 1692,
      "ĠAll": 1693,
      "Ġbott": 1694,
      "Ġdolls": 1695,
      "Ġshar": 1696,
      "Ġcandy": 1697,
      "igg": 1698,
      "avy": 1699,
      "Ġparty": 1700,
      "Ġgu": 1701,
      "Ġeverywhere": 1702,
      "Ġgrateful": 1703,
      "cle": 1704,
      "set": 1705,
      "Ġcup": 1706,
      "Ġblank": 1707,
      "Ġbike": 1708,
      "Ġslowly": 1709,
      "outh": 1710,
      "Ġpaint": 1711,
      "Ġjob": 1712,
      "Ġsuch": 1713,
      "sw": 1714,
      "Ġbelie": 1715,
      "Ġworried": 1716,
      "Ġmouth": 1717,
      "Ġwelc": 1718,
      "ĠAmy": 1719,
      "Ġjoin": 1720,
      "Ġblanket": 1721,
      "Ġfaster": 1722,
      "Ġplant": 1723,
      "fort": 1724,
      "ret": 1725,
      "ually": 1726,
      "Ġansw": 1727,
      "Ġbroke": 1728,
      "Ġmoney": 1729,
      "unch": 1730,
      "ling": 1731,
      "iet": 1732,
      "Ġshap": 1733,
      "Ġgif": 1734,
      "Ġreach": 1735,
      "Ġmagical": 1736,
      "Ġsnack": 1737,
      "Ġbar": 1738,
      "Ġcolorful": 1739,
      "ire": 1740,
      "ident": 1741,
      "Ġhelping": 1742,
      "ased": 1743,
      "Ġprincess": 1744,
      "Ġdoctor": 1745,
      "Ġcho": 1746,
      "Ġrace": 1747,
      "Ġdragon": 1748,
      "Ġacc": 1749,
      "Ġriver": 1750,
      "ĠJim": 1751,
      "Sure": 1752,
      "Ġnap": 1753,
      "Ġpro": 1754,
      "Ġsign": 1755,
      "less": 1756,
      "Ġquiet": 1757,
      "Ġcrying": 1758,
      "orm": 1759,
      "ipped": 1760,
      "Ġblack": 1761,
      "ze": 1762,
      "app": 1763,
      "Ġmost": 1764,
      "ol": 1765,
      "Ġdangerous": 1766,
      "Ġstepped": 1767,
      "Ġtrain": 1768,
      "Ġsmart": 1769,
      "Ġatt": 1770,
      "Ġbowl": 1771,
      "Ġfarmer": 1772,
      "Ġmix": 1773,
      "Ġheavy": 1774,
      "Ġpot": 1775,
      "Ġmonster": 1776,
      "ere": 1777,
      "ored": 1778,
      "Ġje": 1779,
      "ming": 1780,
      "bble": 1781,
      "Ġtwins": 1782,
      "Ġwords": 1783,
      "Ġacross": 1784,
      "Ġdirty": 1785,
      "ear": 1786,
      "Ġdisapp": 1787,
      "Ġeating": 1788,
      "Ġsame": 1789,
      "Ġstuck": 1790,
      "ĠJill": 1791,
      "Ġclosed": 1792,
      "ĠMr": 1793,
      "Ġfruit": 1794,
      "Ġthrew": 1795,
      "Ġmust": 1796,
      "Ġtower": 1797,
      "Ġwouldn": 1798,
      "Ġbuck": 1799,
      "cked": 1800,
      "ĠMolly": 1801,
      "Ġspr": 1802,
      "Ġhig": 1803,
      "Ġwin": 1804,
      "Ġaccident": 1805,
      "Ġcray": 1806,
      "Ġmonkey": 1807,
      "Ġcarrot": 1808,
      "Why": 1809,
      "ord": 1810,
      "Ġbath": 1811,
      "Ġheal": 1812,
      "Ġfeels": 1813,
      "Ġteac": 1814,
      "iting": 1815,
      "Ġbite": 1816,
      "eared": 1817,
      "Hi": 1818,
      "asket": 1819,
      "umb": 1820,
      "Ġpushed": 1821,
      "Ġbutt": 1822,
      "Ġtown": 1823,
      "chool": 1824,
      "Ġpast": 1825,
      "Ġbasket": 1826,
      "Ġheart": 1827,
      "Ġhoped": 1828,
      "br": 1829,
      "Ġwithout": 1830,
      "Ġhit": 1831,
      "Ġcoll": 1832,
      "Ġclapped": 1833,
      "Ġpack": 1834,
      "Ġbelieve": 1835,
      "Ġstand": 1836,
      "Ġpers": 1837,
      "Ġforget": 1838,
      "Mia": 1839,
      "Ġschool": 1840,
      "Ġfairy": 1841,
      "Ġcheered": 1842,
      "phant": 1843,
      "Ġbee": 1844,
      "Ġsmo": 1845,
      "ĠFluffy": 1846,
      "Ġfence": 1847,
      "Ġlon": 1848,
      "de": 1849,
      "orrow": 1850,
      "Ġcour": 1851,
      "Ġyard": 1852,
      "Ġbrown": 1853,
      "Ġchair": 1854,
      "ĠDaddy": 1855,
      "Ġdrove": 1856,
      "ract": 1857,
      "Ġadventures": 1858,
      "Ġnoises": 1859,
      "ier": 1860,
      "ventually": 1861,
      "Ġhigher": 1862,
      "Ġlonely": 1863,
      "ass": 1864,
      "Ġca": 1865,
      "Ġelephant": 1866,
      "Ġteacher": 1867,
      "Ġtoday": 1868,
      "ors": 1869,
      "TMt": 1870,
      "ney": 1871,
      "Ġpocket": 1872,
      "Ġupset": 1873,
      "cy": 1874,
      "vel": 1875,
      "Ġturns": 1876,
      "Ġswings": 1877,
      "Ġgentle": 1878,
      "Ġlonger": 1879,
      "Finally": 1880,
      "Ġwings": 1881,
      "Ġwelcome": 1882,
      "ho": 1883,
      "Ġgames": 1884,
      "ts": 1885,
      "Ġcourse": 1886,
      "Ġben": 1887,
      "Ġexplained": 1888,
      "Ġfree": 1889,
      "Ġneck": 1890,
      "Ġsuddenly": 1891,
      "Ġleg": 1892,
      "Ġjour": 1893,
      "Ġsecret": 1894,
      "Lila": 1895,
      "ead": 1896,
      "Ġstar": 1897,
      "issed": 1898,
      "ountain": 1899,
      "Ġwhe": 1900,
      "Ġdry": 1901,
      "Ġcorn": 1902,
      "Ġsoup": 1903,
      "Ġbring": 1904,
      "Ġshop": 1905,
      "Ġinst": 1906,
      "Ġhappen": 1907,
      "Ġneigh": 1908,
      "Ġdropped": 1909,
      "Ġplac": 1910,
      "Ġhugs": 1911,
      "yard": 1912,
      "Ġtrou": 1913,
      "Ġpiece": 1914,
      "weet": 1915,
      "Ġmin": 1916,
      "Ġthrow": 1917,
      "Ġneighb": 1918,
      "Ġswam": 1919,
      "ible": 1920,
      "Ġstories": 1921,
      "Ġsang": 1922,
      "Ġbackyard": 1923,
      "itting": 1924,
      "ush": 1925,
      "ĠEmma": 1926,
      "pper": 1927,
      "ment": 1928,
      "Ġwish": 1929,
      "Ġrocks": 1930,
      "Ġbucket": 1931,
      "Ġwell": 1932,
      "Ġlate": 1933,
      "ek": 1934,
      "Ġnaught": 1935,
      "Ġapple": 1936,
      "Ġbelong": 1937,
      "Ġowl": 1938,
      "Ġph": 1939,
      "ches": 1940,
      "Ġnaughty": 1941,
      "ces": 1942,
      "Ġtaking": 1943,
      "Ġorange": 1944,
      "Ġalong": 1945,
      "Ġlunch": 1946,
      "ocked": 1947,
      "Ġdrink": 1948,
      "fused": 1949,
      "ung": 1950,
      "Ġjar": 1951,
      "Ġexploring": 1952,
      "Ġexp": 1953,
      "Ġcou": 1954,
      "Ġsea": 1955,
      "Ġes": 1956,
      "Ġyoung": 1957,
      "bow": 1958,
      "Ġdist": 1959,
      "Ġseemed": 1960,
      "Ġsinging": 1961,
      "oun": 1962,
      "Ġshook": 1963,
      "Ġmat": 1964,
      "Ġcaught": 1965,
      "Ġmoved": 1966,
      "Ġwar": 1967,
      "Ġnearby": 1968,
      "Ġpig": 1969,
      "Ġwise": 1970,
      "Ġkey": 1971,
      "Ġshoes": 1972,
      "Ġstars": 1973,
      "Ġtiny": 1974,
      "Ġthough": 1975,
      "Ġwoke": 1976,
      "Ġtom": 1977,
      "Ġdes": 1978,
      "Ġmiss": 1979,
      "Ġaf": 1980,
      "llo": 1981,
      "ĠGrandma": 1982,
      "Ġmail": 1983,
      "ail": 1984,
      "ions": 1985,
      "vered": 1986,
      "Do": 1987,
      "cer": 1988,
      "Ġsick": 1989,
      "col": 1990,
      "ĠThank": 1991,
      "Ġbench": 1992,
      "Ġcarry": 1993,
      "ape": 1994,
      "Ġrelie": 1995,
      "Ġresp": 1996,
      "Ġsu": 1997,
      "Ġnest": 1998,
      "Ġshapes": 1999,
      "cing": 2000,
      "ittens": 2001,
      "sy": 2002,
      "Ġrainbow": 2003,
      "Ġarms": 2004,
      "idge": 2005,
      "Ġbranch": 2006,
      "Ġkite": 2007,
      "Ġmine": 2008,
      "Ġdriver": 2009,
      "Ġjuice": 2010,
      "Ġtakes": 2011,
      "Ġbusy": 2012,
      "Ġob": 2013,
      "aughter": 2014,
      "raid": 2015,
      "Ġafraid": 2016,
      "let": 2017,
      "ĠMary": 2018,
      "Ġwondered": 2019,
      "itch": 2020,
      "Ġmad": 2021,
      "ward": 2022,
      "Ġcir": 2023,
      "Ġsitting": 2024,
      "ining": 2025,
      "Ġcow": 2026,
      "Ġmark": 2027,
      "ese": 2028,
      "Ġmil": 2029,
      "cks": 2030,
      "Ġstreet": 2031,
      "And": 2032,
      "Ġcomes": 2033,
      "Ġinv": 2034,
      "Ġaccidentally": 2035,
      "Ġround": 2036,
      "Ġnose": 2037,
      "Ġdisco": 2038,
      "Ġking": 2039,
      "Ġforever": 2040,
      "Ġ3": 2041,
      "Later": 2042,
      "Ġyear": 2043,
      "Ġfarm": 2044,
      "Ġwhist": 2045,
      "Ġband": 2046,
      "Ġpeace": 2047,
      "Ġdaughter": 2048,
      "Ġlift": 2049,
      "Ġsounds": 2050,
      "sting": 2051,
      "Ġgift": 2052,
      "Ġstu": 2053,
      "ĠFinally": 2054,
      "to": 2055,
      "Ġegg": 2056,
      "Ġcute": 2057,
      "bby": 2058,
      "thday": 2059,
      "ball": 2060,
      "Ġexciting": 2061,
      "adow": 2062,
      "Ġcozy": 2063,
      "Ġfit": 2064,
      "ity": 2065,
      "Ġletter": 2066,
      "Ġpurp": 2067,
      "ĠInside": 2068,
      "Ġcoat": 2069,
      "Ġwra": 2070,
      "Ġboun": 2071,
      "Ġpower": 2072,
      "ours": 2073,
      "Ġrelieved": 2074,
      "Ġhello": 2075,
      "Ġnothing": 2076,
      "Ġpatient": 2077,
      "Ġintere": 2078,
      "Ġholding": 2079,
      "Ġlaughing": 2080,
      "Ġhuge": 2081,
      "Ġjourney": 2082,
      "Of": 2083,
      "Ġmist": 2084,
      "ĠTweet": 2085,
      "shine": 2086,
      "Ġimag": 2087,
      "Ġspoon": 2088,
      "ĠSoon": 2089,
      "Ġswimming": 2090,
      "Ġgigg": 2091,
      "itten": 2092,
      "Ġmilk": 2093,
      "Ġdays": 2094,
      "Ġsunshine": 2095,
      "Ġlife": 2096,
      "Ġcomfort": 2097,
      "Ġfing": 2098,
      "Ġpurple": 2099,
      "gged": 2100,
      "uched": 2101,
      "Ġtouched": 2102,
      "Ġlater": 2103,
      "ĠCome": 2104,
      "ĠMama": 2105,
      "Ġinstead": 2106,
      "Ġact": 2107,
      "Ġbirthday": 2108,
      "irt": 2109,
      "eth": 2110,
      "ĠO": 2111,
      "Ġroad": 2112,
      "Ġcheese": 2113,
      "Ġinc": 2114,
      "fish": 2115,
      "Ġear": 2116,
      "Ġsunny": 2117,
      "unt": 2118,
      "alm": 2119,
      "Ġret": 2120,
      "Ġgives": 2121,
      "Ġsearched": 2122,
      "ped": 2123,
      "Ġbought": 2124,
      "Ġfan": 2125,
      "Ġbread": 2126,
      "Ġpointed": 2127,
      "ness": 2128,
      "Ġanyone": 2129,
      "Ġonto": 2130,
      "Ġbottle": 2131,
      "board": 2132,
      "Ġpres": 2133,
      "Ġducks": 2134,
      "ize": 2135,
      "Ġstorm": 2136,
      "sc": 2137,
      "ose": 2138,
      "Ġhope": 2139,
      "Ġreturn": 2140,
      "Ġlucky": 2141,
      "Ġplane": 2142,
      "ĠSammy": 2143,
      "Ġtasty": 2144,
      "Ġcave": 2145,
      "Ġcreature": 2146,
      "Ġwatching": 2147,
      "blem": 2148,
      "Ġgrab": 2149,
      "Ġpudd": 2150,
      "Hey": 2151,
      "Ġproblem": 2152,
      "Ġce": 2153,
      "Ġsmiling": 2154,
      "ndp": 2155,
      "Ġrope": 2156,
      "Ġkick": 2157,
      "Ġspo": 2158,
      "Ġcrayons": 2159,
      "Ġshell": 2160,
      "Ġeas": 2161,
      "Ġsharp": 2162,
      "aur": 2163,
      "Ġspid": 2164,
      "els": 2165,
      "Ġmeet": 2166,
      "Ġpromise": 2167,
      "Ġsnowman": 2168,
      "Ġperson": 2169,
      "Ġhoney": 2170,
      "Ġdanced": 2171,
      "ond": 2172,
      "Ġpuzz": 2173,
      "epend": 2174,
      "Ġinteresting": 2175,
      "ten": 2176,
      "Ġtalked": 2177,
      "Ġsandw": 2178,
      "Ġbutton": 2179,
      "Ġquest": 2180,
      "Ġcollect": 2181,
      "og": 2182,
      "ove": 2183,
      "Ġzoom": 2184,
      "Ġtrouble": 2185,
      "Ġwide": 2186,
      "Ġcard": 2187,
      "Ġkiss": 2188,
      "ometimes": 2189,
      "itty": 2190,
      "Bob": 2191,
      "Ġsmelled": 2192,
      "Ġspin": 2193,
      "Ġpresent": 2194,
      "Ġent": 2195,
      "Ġap": 2196,
      "Ġlovely": 2197,
      "Ġapples": 2198,
      "Ġpract": 2199,
      "Ġadm": 2200,
      "Ġwrite": 2201,
      "Ġbush": 2202,
      "Ġgiant": 2203,
      "ĠJimmy": 2204,
      "Ġhealthy": 2205,
      "ont": 2206,
      "Ġclouds": 2207,
      "Ġpill": 2208,
      "Ġshining": 2209,
      "Ġgather": 2210,
      "izz": 2211,
      "Ġpar": 2212,
      "umber": 2213,
      "Ġrolled": 2214,
      "isa": 2215,
      "Ġcheer": 2216,
      "Tommy": 2217,
      "Ġplaces": 2218,
      "Good": 2219,
      "Ġfront": 2220,
      "ndpa": 2221,
      "Ġputs": 2222,
      "owed": 2223,
      "Ġwhich": 2224,
      "Ġloves": 2225,
      "Ġsaf": 2226,
      "Ġvill": 2227,
      "Ġsur": 2228,
      "Ġpath": 2229,
      "ĠMittens": 2230,
      "lla": 2231,
      "Ġspotted": 2232,
      "ub": 2233,
      "Ġtun": 2234,
      "Ġhon": 2235,
      "Ġworm": 2236,
      "Ġimpre": 2237,
      "Ġclever": 2238,
      "Ġshr": 2239,
      "Ġorgan": 2240,
      "Ġmyster": 2241,
      "bar": 2242,
      "Ġlay": 2243,
      "Ġmatter": 2244,
      "Ġfeather": 2245,
      "Ġtasted": 2246,
      "Ġwild": 2247,
      "Ġdi": 2248,
      "Ġeag": 2249,
      "Ġzoo": 2250,
      "Ġmed": 2251,
      "Ġtrip": 2252,
      "Ġprot": 2253,
      "Ġrespect": 2254,
      "een": 2255,
      "Ġbark": 2256,
      "Ġhor": 2257,
      "Ġcouch": 2258,
      "Ġsuc": 2259,
      "Ġthin": 2260,
      "Ġpop": 2261,
      "Ġwhole": 2262,
      "Lucy": 2263,
      "ching": 2264,
      "Ġfoot": 2265,
      "Ġprotect": 2266,
      "erly": 2267,
      "Ġasleep": 2268,
      "Ġpile": 2269,
      "Ġspent": 2270,
      "ular": 2271,
      "St": 2272,
      "Ġbuilding": 2273,
      "Ġdirt": 2274,
      "cean": 2275,
      "Ġocean": 2276,
      "Ġlad": 2277,
      "Ġknee": 2278,
      "la": 2279,
      "Ġgoes": 2280,
      "Ġcoin": 2281,
      "Ġspider": 2282,
      "Ġwearing": 2283,
      "barra": 2284,
      "Ġmountain": 2285,
      "Ġpretended": 2286,
      "Ġembarra": 2287,
      "eb": 2288,
      "nic": 2289,
      "Every": 2290,
      "Ġslid": 2291,
      "Ġpicnic": 2292,
      "Ġscreamed": 2293,
      "Ġfaces": 2294,
      "Ġteach": 2295,
      "Ġphone": 2296,
      "hile": 2297,
      "Ġsack": 2298,
      "Ġsnake": 2299,
      "Ġanswer": 2300,
      "ĠWith": 2301,
      "Ġseat": 2302,
      "Ġconfused": 2303,
      "Ġappeared": 2304,
      "Come": 2305,
      "oose": 2306,
      "Jim": 2307,
      "Ġtalking": 2308,
      "Ġgently": 2309,
      "ife": 2310,
      "Ġsal": 2311,
      "Ġfurry": 2312,
      "ex": 2313,
      "Ġhelpful": 2314,
      "Ġmud": 2315,
      "Ġdrive": 2316,
      "Ġmind": 2317,
      "lex": 2318,
      "Ġpan": 2319,
      "Ġpass": 2320,
      "Ġladder": 2321,
      "Ġsupp": 2322,
      "Ġoven": 2323,
      "Ġign": 2324,
      "Ġcart": 2325,
      "Ġpush": 2326,
      "In": 2327,
      "ale": 2328,
      "Ġser": 2329,
      "Ġrec": 2330,
      "Ġwhenever": 2331,
      "arge": 2332,
      "Ġval": 2333,
      "Ġcorner": 2334,
      "unk": 2335,
      "Ġwom": 2336,
      "Ġchocol": 2337,
      "Ġcalm": 2338,
      "Ġsplas": 2339,
      "Ġwoman": 2340,
      "Ġban": 2341,
      "ĠHow": 2342,
      "ÅĵI": 2343,
      "Ġneighbor": 2344,
      "Just": 2345,
      "Ġlast": 2346,
      "ĠGo": 2347,
      "Ġtool": 2348,
      "Ġmach": 2349,
      "ĠSometimes": 2350,
      "Molly": 2351,
      "Ġblew": 2352,
      "Ġfixed": 2353,
      "read": 2354,
      "Ġring": 2355,
      "Ġfighting": 2356,
      "Ġfinish": 2357,
      "Ġwaiting": 2358,
      "Ġwave": 2359,
      "Ġspicy": 2360,
      "Ġforgive": 2361,
      "Ġtid": 2362,
      "ert": 2363,
      "bbles": 2364,
      "ĠAl": 2365,
      "Ġfeet": 2366,
      "Ġminut": 2367,
      "Ġspread": 2368,
      "Ġdelight": 2369,
      "Ġash": 2370,
      "Ġtaste": 2371,
      "Ġeventually": 2372,
      "Ġteeth": 2373,
      "Ġlive": 2374,
      "Ġembarrassed": 2375,
      "Ġpour": 2376,
      "Ġhorse": 2377,
      "Ġtomorrow": 2378,
      "Soon": 2379,
      "Ġremind": 2380,
      "Ġbell": 2381,
      "Mum": 2382,
      "Ġscar": 2383,
      "Ġcookie": 2384,
      "Ġsmooth": 2385,
      "Ġrocket": 2386,
      "ones": 2387,
      "Ġant": 2388,
      "Ġshy": 2389,
      "Ġcloth": 2390,
      "Ġfold": 2391,
      "ĠEmily": 2392,
      "Ġchocolate": 2393,
      "mo": 2394,
      "Ġtries": 2395,
      "ĠCh": 2396,
      "Ġcolour": 2397,
      "Ġstep": 2398,
      "oph": 2399,
      "old": 2400,
      "Ġlarge": 2401,
      "Ġtea": 2402,
      "Ġsongs": 2403,
      "Ġneckl": 2404,
      "Ġhiding": 2405,
      "Ġbanan": 2406,
      "ĠJenny": 2407,
      "Ġkitten": 2408,
      "Ġpaw": 2409,
      "Ġspray": 2410,
      "Ġspe": 2411,
      "urse": 2412,
      "Ġrob": 2413,
      "Ġhum": 2414,
      "Ġpool": 2415,
      "Ġshirt": 2416,
      "Ġple": 2417,
      "Ġemp": 2418,
      "Ġwash": 2419,
      "Ġcann": 2420,
      "Ġpizz": 2421,
      "Ġempty": 2422,
      "nny": 2423,
      "ungle": 2424,
      "Ġvillage": 2425,
      "Ġcreative": 2426,
      "lebr": 2427,
      "Ġjungle": 2428,
      "Ġgrew": 2429,
      "Ġbugs": 2430,
      "Ġtightly": 2431,
      "Ġtidy": 2432,
      "als": 2433,
      "getable": 2434,
      "Ġcannot": 2435,
      "ĠSt": 2436,
      "dge": 2437,
      "Ġcoo": 2438,
      "Ġknocked": 2439,
      "Ġvegetable": 2440,
      "Ġwhistle": 2441,
      "Ġsol": 2442,
      "Ġrep": 2443,
      "Ġcelebr": 2444,
      "umpy": 2445,
      "ato": 2446,
      "hnny": 2447,
      "ĠTV": 2448,
      "den": 2449,
      "Ġchick": 2450,
      "My": 2451,
      "Ġrude": 2452,
      "Ġwore": 2453,
      "Ġtrust": 2454,
      "Ġhar": 2455,
      "ĠSome": 2456,
      "airs": 2457,
      "Ġbarked": 2458,
      "Ġrobot": 2459,
      "Ġwip": 2460,
      "Ġpeaceful": 2461,
      "Now": 2462,
      "Ġsparkly": 2463,
      "Ġpuddle": 2464,
      "Ġnecklace": 2465,
      "ground": 2466,
      "Ġhears": 2467,
      "Ġchased": 2468,
      "ighed": 2469,
      "ĠEverywhere": 2470,
      "Ġpizza": 2471,
      "ĠPlease": 2472,
      "Ġstret": 2473,
      "Ġsel": 2474,
      "Ġstir": 2475,
      "ĠJust": 2476,
      "Ġmeant": 2477,
      "ĠLe": 2478,
      "ned": 2479,
      "Ġbal": 2480,
      "Ġmoon": 2481,
      "Ġmaybe": 2482,
      "Ġgun": 2483,
      "Ġstra": 2484,
      "Ġpuzzle": 2485,
      "Ġhidden": 2486,
      "Ġpin": 2487,
      "Ġnet": 2488,
      "Ġsave": 2489,
      "ian": 2490,
      "Ġtreats": 2491,
      "Ġgen": 2492,
      "Ġmeadow": 2493,
      "Ġcarrots": 2494,
      "ĠOn": 2495,
      "inted": 2496,
      "lower": 2497,
      "era": 2498,
      "box": 2499,
      "Ġmot": 2500,
      "Ġsticks": 2501,
      "Ġsnacks": 2502,
      "dle": 2503,
      "Ġcarried": 2504,
      "Ġmissed": 2505,
      "ĠTheir": 2506,
      "gly": 2507,
      "ustr": 2508,
      "Ġforward": 2509,
      "ult": 2510,
      "Ġseed": 2511,
      "Ġflut": 2512,
      "Ġtells": 2513,
      "Ġsplash": 2514,
      "Ġav": 2515,
      "Ġgroup": 2516,
      "Ġsour": 2517,
      "Ġbat": 2518,
      "Ġcrab": 2519,
      "Ġprince": 2520,
      "Ġmachine": 2521,
      "Ġshelf": 2522,
      "Ġber": 2523,
      "ĠJake": 2524,
      "Ġclear": 2525,
      "Ġugly": 2526,
      "Ġstring": 2527,
      "Ġselfish": 2528,
      "Ġjumping": 2529,
      "Ġdisappo": 2530,
      "Ġ'": 2531,
      "ird": 2532,
      "Dad": 2533,
      "ĠTeddy": 2534,
      "aul": 2535,
      "Ġgold": 2536,
      "iger": 2537,
      "Ġlem": 2538,
      "elly": 2539,
      "kin": 2540,
      "Ġfrustr": 2541,
      "Ġleaf": 2542,
      "Ġburn": 2543,
      "Ġknowing": 2544,
      "Ġgray": 2545,
      "Ġstood": 2546,
      "ĠLisa": 2547,
      "ying": 2548,
      "Ġroar": 2549,
      "Ġyelled": 2550,
      "Ġpolice": 2551,
      "Ġlanded": 2552,
      "Ġlegs": 2553,
      "Please": 2554,
      "itter": 2555,
      "Ġsharing": 2556,
      "most": 2557,
      "Ġhonest": 2558,
      "Ġpir": 2559,
      "Ġcirc": 2560,
      "ator": 2561,
      "Ġstone": 2562,
      "eterm": 2563,
      "hin": 2564,
      "Ġwhis": 2565,
      "Ġblow": 2566,
      "Ġdeterm": 2567,
      "ĠWhy": 2568,
      "ĠMum": 2569,
      "ĠTogether": 2570,
      "Ġstanding": 2571,
      "Ġplate": 2572,
      "Ġdrew": 2573,
      "Ġbreath": 2574,
      "Ġalmost": 2575,
      "Ġgar": 2576,
      "Ġnods": 2577,
      "vous": 2578,
      "Ġfancy": 2579,
      "Ġfrustrated": 2580,
      "Ġnumber": 2581,
      "Ġseek": 2582,
      "Stop": 2583,
      "Ġdisappointed": 2584,
      "Ġtest": 2585,
      "Ġsleepy": 2586,
      "To": 2587,
      "orry": 2588,
      "iff": 2589,
      "Ġthese": 2590,
      "ital": 2591,
      "Mama": 2592,
      "aking": 2593,
      "There": 2594,
      "uce": 2595,
      "Ġfear": 2596,
      "Ġscream": 2597,
      "Ġpowerful": 2598,
      "Ġmysterious": 2599,
      "Ġfeed": 2600,
      "Ġpillow": 2601,
      "Be": 2602,
      "ser": 2603,
      "Ġhours": 2604,
      "Ġgener": 2605,
      "Ġpolite": 2606,
      "ĠBr": 2607,
      "ĠAnn": 2608,
      "Ġhosp": 2609,
      "Ġfil": 2610,
      "Ġcro": 2611,
      "pack": 2612,
      "Ġhospital": 2613,
      "Ġline": 2614,
      "Ġgas": 2615,
      "Ġjew": 2616,
      "Ġmedic": 2617,
      "Ġashamed": 2618,
      "ffe": 2619,
      "Ġplants": 2620,
      "Ġcries": 2621,
      "Ġdecor": 2622,
      "ĠEven": 2623,
      "ecially": 2624,
      "Ġner": 2625,
      "ote": 2626,
      "ets": 2627,
      "Ġreg": 2628,
      "ĠPeter": 2629,
      "Ġreturned": 2630,
      "issors": 2631,
      "ual": 2632,
      "izzy": 2633,
      "Ġunderstood": 2634,
      "Ġsheep": 2635,
      "Ġscissors": 2636,
      "Ġmedicine": 2637,
      "Ġnervous": 2638,
      "Ġwhisp": 2639,
      "ĠDon": 2640,
      "Ġtwirl": 2641,
      "ensive": 2642,
      "Ġexpensive": 2643,
      "Ġspoil": 2644,
      "pecially": 2645,
      "ony": 2646,
      "Ġshore": 2647,
      "Ġpacked": 2648,
      "Ġespecially": 2649,
      "sist": 2650,
      "Ġscarf": 2651,
      "osaur": 2652,
      "Ġbored": 2653,
      "ĠBe": 2654,
      "Ġpay": 2655,
      "Ġdancing": 2656,
      "Ġpassed": 2657,
      "Ġsandwich": 2658,
      "Ġvegetables": 2659,
      "Ġnut": 2660,
      "Ġtaught": 2661,
      "Ġvan": 2662,
      "Ġgarage": 2663,
      "Ġsaved": 2664,
      "Ġpoor": 2665,
      "Ġgrumpy": 2666,
      "usie": 2667,
      "Ġcloset": 2668,
      "light": 2669,
      "ina": 2670,
      "Ġpri": 2671,
      "Ġbecome": 2672,
      "Ġhel": 2673,
      "Ġmummy": 2674,
      "Ġruined": 2675,
      "Ġscr": 2676,
      "Ġtaken": 2677,
      "Ġfinger": 2678,
      "Ġgate": 2679,
      "'d": 2680,
      "Ġdrum": 2681,
      "Ġcomfortable": 2682,
      "Ġfill": 2683,
      "Ġmessy": 2684,
      "iddle": 2685,
      "Ġcand": 2686,
      "ĠRex": 2687,
      "Ġdinosaur": 2688,
      "Ġsold": 2689,
      "Ġbedroom": 2690,
      "Ġeasy": 2691,
      "Ġones": 2692,
      "Ġexam": 2693,
      "Ġgenerous": 2694,
      "oop": 2695,
      "Ġpleased": 2696,
      "Ġasking": 2697,
      "ano": 2698,
      "Ġclass": 2699,
      "Ġsuccess": 2700,
      "ym": 2701,
      "Ġwis": 2702,
      "Ġyourself": 2703,
      "Jane": 2704,
      "imp": 2705,
      "Ġworking": 2706,
      "Ġdetermined": 2707,
      "Ġship": 2708,
      "Ġpray": 2709,
      "Ġglue": 2710,
      "Ġfig": 2711,
      "Ġhopping": 2712,
      "Ġgiggled": 2713,
      "Ġsailed": 2714,
      "Ġboring": 2715,
      "Ġstuff": 2716,
      "Ġballs": 2717,
      "ĠLeo": 2718,
      "Ġmotor": 2719,
      "Ġcri": 2720,
      "Ġwagged": 2721,
      "Ġvase": 2722,
      "Ġglass": 2723,
      "Jimmy": 2724,
      "Ġkissed": 2725,
      "Where": 2726,
      "Ġhur": 2727,
      "Ġmov": 2728,
      "ĠKitty": 2729,
      "Ġmistake": 2730,
      "Ġoften": 2731,
      "ĠOK": 2732,
      "Ġsighed": 2733,
      "ates": 2734,
      "Ġdest": 2735,
      "Ġplayground": 2736,
      "Ġexcite": 2737,
      "Ġesc": 2738,
      "Ġminutes": 2739,
      "erp": 2740,
      "Ġtrue": 2741,
      "Ġwheel": 2742,
      "Ġlead": 2743,
      "Ġbrush": 2744,
      "ĠJohnny": 2745,
      "Ġchest": 2746,
      "Ġchew": 2747,
      "Ġanswered": 2748,
      "Ġwaves": 2749,
      "Ġweak": 2750,
      "Ġclown": 2751,
      "Ġboys": 2752,
      "Ġgathered": 2753,
      "iness": 2754,
      "Ġfake": 2755,
      "Ġspend": 2756,
      "Ġdrop": 2757,
      "Ġthankful": 2758,
      "illi": 2759,
      "Ġtears": 2760,
      "Ġrad": 2761,
      "ĠZ": 2762,
      "mb": 2763,
      "Ġtick": 2764,
      "Ġmiddle": 2765,
      "selves": 2766,
      "Ġcontent": 2767,
      "Sarah": 2768,
      "Ġhang": 2769,
      "Ġjelly": 2770,
      "Ġteam": 2771,
      "apped": 2772,
      "ots": 2773,
      "Ġeld": 2774,
      "Ġgets": 2775,
      "ushed": 2776,
      "Ġexcitement": 2777,
      "Ġcap": 2778,
      "Ġquestions": 2779,
      "Ġlemon": 2780,
      "Ġeggs": 2781,
      "Ġlock": 2782,
      "Who": 2783,
      "Ġtent": 2784,
      "arl": 2785,
      "Ġflag": 2786,
      "Ġskipped": 2787,
      "Ġfridge": 2788,
      "ipp": 2789,
      "Ġchange": 2790,
      "Ġsmelly": 2791,
      "Ġwrote": 2792,
      "Ġrid": 2793,
      "Ġdrawing": 2794,
      "Ġlit": 2795,
      "Ġrelax": 2796,
      "Ġadd": 2797,
      "llie": 2798,
      "Ġfruits": 2799,
      "Ġdiscovered": 2800,
      "oof": 2801,
      "aged": 2802,
      "Sorry": 2803,
      "Ġknight": 2804,
      "Ġbridge": 2805,
      "Ġsight": 2806,
      "ete": 2807,
      "ĠBl": 2808,
      "Ġbathroom": 2809,
      "Their": 2810,
      "Ġboard": 2811,
      "Ġmatch": 2812,
      "Ġmir": 2813,
      "Ġdogs": 2814,
      "Are": 2815,
      "Ġknife": 2816,
      "Ġshows": 2817,
      "Ġclap": 2818,
      "Ġlazy": 2819,
      "Ġfluffy": 2820,
      "Ġqueen": 2821,
      "Ġwolf": 2822,
      "Ġtag": 2823,
      "Ġsil": 2824,
      "Ġcovered": 2825,
      "ĠBrown": 2826,
      "que": 2827,
      "Ġcheck": 2828,
      "Ġsweetie": 2829,
      "Jill": 2830,
      "Ġfamous": 2831,
      "Ġmighty": 2832,
      "ork": 2833,
      "cept": 2834,
      "Ġbake": 2835,
      "Ġord": 2836,
      "Ġpicks": 2837,
      "Ġdrank": 2838,
      "Ġdistance": 2839,
      "Ġmic": 2840,
      "Ġang": 2841,
      "ĠAt": 2842,
      "Ġnod": 2843,
      "ella": 2844,
      "Ġdisappeared": 2845,
      "ipper": 2846,
      "Ġlying": 2847,
      "Ġdeer": 2848,
      "ror": 2849,
      "Ġwander": 2850,
      "Ġboss": 2851,
      "Ġcaterp": 2852,
      "Ġtowel": 2853,
      "Ġcrown": 2854,
      "Ġcaterpill": 2855,
      "Me": 2856,
      "usual": 2857,
      "Ġunusual": 2858,
      "Ġwalks": 2859,
      "Ġfre": 2860,
      "Ġmap": 2861,
      "Ġsoap": 2862,
      "Ġcalling": 2863,
      "Ġeager": 2864,
      "ti": 2865,
      "Ġbone": 2866,
      "Ġind": 2867,
      "Ġfis": 2868,
      "Ġmoving": 2869,
      "Ġshoot": 2870,
      "Ġed": 2871,
      "Ġsell": 2872,
      "Ġdecide": 2873,
      "Ġelderly": 2874,
      "obby": 2875,
      "ĠIf": 2876,
      "Ġlose": 2877,
      "Ġstones": 2878,
      "ination": 2879,
      "Ġborrow": 2880,
      "Ġcover": 2881,
      "Ġdig": 2882,
      "Ġdish": 2883,
      "elp": 2884,
      "Ġcleaned": 2885,
      "body": 2886,
      "Ġsplashed": 2887,
      "ating": 2888,
      "Sally": 2889,
      "Ġweek": 2890,
      "Ġglow": 2891,
      "Ġcrawl": 2892,
      "Ġcage": 2893,
      "arth": 2894,
      "ĠEnd": 2895,
      "Ġcher": 2896,
      "imed": 2897,
      "work": 2898,
      "umbled": 2899,
      "Ġincred": 2900,
      "Ġhunt": 2901,
      "Ġfeathers": 2902,
      "Ġoffered": 2903,
      "Ġbanana": 2904,
      "asing": 2905,
      "Ġcaterpillar": 2906,
      "Ġyours": 2907,
      "Ġkindness": 2908,
      "Ġfather": 2909,
      "alous": 2910,
      "Ġcoins": 2911,
      "Ġeye": 2912,
      "Ġjuicy": 2913,
      "Ġbrilli": 2914,
      "Ġjealous": 2915,
      "Ġbranches": 2916,
      "Ġtape": 2917,
      "Ġcam": 2918,
      "Ġcost": 2919,
      "Ġbottom": 2920,
      "Ġorganized": 2921,
      "Ġmirror": 2922,
      "Ġlamp": 2923,
      "Ġbody": 2924,
      "Ġbrilliant": 2925,
      "Ġtoug": 2926,
      "Ġrare": 2927,
      "fast": 2928,
      "Ġtie": 2929,
      "Ġcraw": 2930,
      "Ġhorn": 2931,
      "Ġthick": 2932,
      "Ġcrawled": 2933,
      "Ġdepend": 2934,
      "Ġhurts": 2935,
      "Ġtunn": 2936,
      "port": 2937,
      "ĠNo": 2938,
      "enny": 2939,
      "Ġmeasure": 2940,
      "Ġcolourful": 2941,
      "Ġbalance": 2942,
      "Help": 2943,
      "Ġbubbles": 2944,
      "Ġbreakfast": 2945,
      "Ġimpressed": 2946,
      "Ġlicked": 2947,
      "Ġext": 2948,
      "Ġhero": 2949,
      "ugar": 2950,
      "Ġtwist": 2951,
      "olog": 2952,
      "Ġincredible": 2953,
      "Ġtiger": 2954,
      "Ġfool": 2955,
      "Ġrough": 2956,
      "Ġjoke": 2957,
      "Ġcross": 2958,
      "Ġonce": 2959,
      "Ġtrucks": 2960,
      "Ġwagon": 2961,
      "Ġfine": 2962,
      "Ġlibr": 2963,
      "Ġboxes": 2964,
      "Ġtough": 2965,
      "Ġadventur": 2966,
      "Ġsmoke": 2967,
      "Ġhappening": 2968,
      "Ġapolog": 2969,
      "appy": 2970,
      "bin": 2971,
      "Ġmanaged": 2972,
      "Ġcabin": 2973,
      "Ġsugar": 2974,
      "ilt": 2975,
      "amond": 2976,
      "?\".": 2977,
      "Ġflash": 2978,
      "Ġrealised": 2979,
      "Ġfavour": 2980,
      "Ġbitter": 2981,
      "Ġtrunk": 2982,
      "Ġadventurous": 2983,
      "How": 2984,
      "Ġwrapped": 2985,
      "hip": 2986,
      "rag": 2987,
      "Ġnoisy": 2988,
      "Ġchase": 2989,
      "Ġjog": 2990,
      "Ġfalls": 2991,
      "Ġflute": 2992,
      "ĠBlue": 2993,
      "Mummy": 2994,
      "Ġaw": 2995,
      "Ġadded": 2996,
      "Ġsugg": 2997,
      "Ġfavourite": 2998,
      "Ġsuggest": 2999,
      "Sp": 3000,
      "Ġdizzy": 3001,
      "ĠSusie": 3002,
      "Ġmelt": 3003,
      "Ġok": 3004,
      "Ġdiamond": 3005,
      "Ġrecord": 3006,
      "Ġharm": 3007,
      "Ġmixed": 3008,
      "Ġcircles": 3009,
      "Ġfoolish": 3010,
      "Al": 3011,
      "Ġsunf": 3012,
      "Ġmarket": 3013,
      "Ġpump": 3014,
      "Ġaccept": 3015,
      "lies": 3016,
      "Ġwand": 3017,
      "Ġlog": 3018,
      "Ġjam": 3019,
      "ured": 3020,
      "Ġguess": 3021,
      "Ġsafely": 3022,
      "land": 3023,
      "yal": 3024,
      "keep": 3025,
      "Ġlouder": 3026,
      "Ġextra": 3027,
      "ory": 3028,
      "Ġword": 3029,
      "Ġneeds": 3030,
      "Ġarg": 3031,
      "Ġlifted": 3032,
      "edient": 3033,
      "ery": 3034,
      "ately": 3035,
      "ĠMark": 3036,
      "Ġcheerful": 3037,
      "Ġturt": 3038,
      "ĠSn": 3039,
      "Ġshark": 3040,
      "Ġjack": 3041,
      "Ġmagn": 3042,
      "Ġdependable": 3043,
      "Ġter": 3044,
      "Ġpil": 3045,
      "Ġears": 3046,
      "Ġpointing": 3047,
      "uggled": 3048,
      "Ġdreamed": 3049,
      "Ġwrap": 3050,
      "Ġberries": 3051,
      "Ġmoms": 3052,
      "Ġagainst": 3053,
      "Ġgrandpa": 3054,
      "Ġgrown": 3055,
      "Ġjewel": 3056,
      "ira": 3057,
      "Ġpee": 3058,
      "Ġgiving": 3059,
      "Ġfigure": 3060,
      "Sue": 3061,
      "Ġham": 3062,
      "Ġgrace": 3063,
      "Ġweal": 3064,
      "Ġfrown": 3065,
      "Well": 3066,
      "Ġswan": 3067,
      "Ġbags": 3068,
      "Ġmovie": 3069,
      "Ġtwig": 3070,
      "Ġdreams": 3071,
      "Ġballoons": 3072,
      "Ġbelonged": 3073,
      "ique": 3074,
      "head": 3075,
      "omed": 3076,
      "Ġlearning": 3077,
      "Ġstronger": 3078,
      "laimed": 3079,
      "Gra": 3080,
      "Ġdolp": 3081,
      "Ġedge": 3082,
      "Ġexclaimed": 3083,
      "Ġyarn": 3084,
      "Ġsword": 3085,
      "Ġslipped": 3086,
      "Ġunique": 3087,
      "Ġsearch": 3088,
      "Ġloyal": 3089,
      "Ġchoose": 3090,
      "emo": 3091,
      "Ġhats": 3092,
      "Ġshake": 3093,
      "rage": 3094,
      "Ġloudly": 3095,
      "Ġenjoying": 3096,
      "fic": 3097,
      "oppy": 3098,
      "Ġhappiness": 3099,
      "Ġspun": 3100,
      "iable": 3101,
      "Ġobedient": 3102,
      "Ġtools": 3103,
      "anut": 3104,
      "anged": 3105,
      "Ġmarble": 3106,
      "ĠMrs": 3107,
      "ready": 3108,
      "Ġsquee": 3109,
      "Ġlaughs": 3110,
      "Ġrich": 3111,
      "Ġwalls": 3112,
      "Ġlean": 3113,
      "ĠElla": 3114,
      "Ġtele": 3115,
      "Ġreliable": 3116,
      "Ġcamera": 3117,
      "und": 3118,
      "Ġfour": 3119,
      "ĠFred": 3120,
      "ext": 3121,
      "iv": 3122,
      "ature": 3123,
      "Ġalready": 3124,
      "Ġmod": 3125,
      "Ġcleaning": 3126,
      "Ġunl": 3127,
      "Ġdiffic": 3128,
      "Ġangel": 3129,
      "Ġterri": 3130,
      "oot": 3131,
      "ĠMy": 3132,
      "Ġclay": 3133,
      "Ġbull": 3134,
      "Ġmeans": 3135,
      "Ġuseful": 3136,
      "Ġcrayon": 3137,
      "Billy": 3138,
      "Ġgoat": 3139,
      "ipe": 3140,
      "Ġpainting": 3141,
      "Ġbuttons": 3142,
      "gy": 3143,
      "ention": 3144,
      "Here": 3145,
      "Ġbarn": 3146,
      "ages": 3147,
      "Ġusing": 3148,
      "Ġcompet": 3149,
      "Ġstraw": 3150,
      "ĠLittle": 3151,
      "umbers": 3152,
      "Ġbloom": 3153,
      "Ġstubb": 3154,
      "Ġindepend": 3155,
      "Ġtunnel": 3156,
      "Ġturtle": 3157,
      "Ġtank": 3158,
      "Ġhelps": 3159,
      "Ġscare": 3160,
      "Ġcircle": 3161,
      "Ġdifficult": 3162,
      "cil": 3163,
      "Ġnorm": 3164,
      "Ġthoughtful": 3165,
      "Joe": 3166,
      "Ġpencil": 3167,
      "keeper": 3168,
      "Ġthu": 3169,
      "Ġfier": 3170,
      "Ġfright": 3171,
      "Ġbushes": 3172,
      "ĠTweety": 3173,
      "Ġpeanut": 3174,
      "Ġpainted": 3175,
      "Ġnosy": 3176,
      "Ġsounded": 3177,
      "zed": 3178,
      "Ġtimes": 3179,
      "Ġguit": 3180,
      "Ġstream": 3181,
      "Ġgem": 3182,
      "Ġwhale": 3183,
      "Ġoffice": 3184,
      "Ġcounted": 3185,
      "Ġdove": 3186,
      "Ġref": 3187,
      "Ġskin": 3188,
      "Ġbald": 3189,
      "Ġparrot": 3190,
      "Ġliz": 3191,
      "Ġcompetit": 3192,
      "Ġstubborn": 3193,
      "Amy": 3194,
      "Ġbirdie": 3195,
      "Ġfierce": 3196,
      "wards": 3197,
      "Ġtoast": 3198,
      "ado": 3199,
      "ĠBu": 3200,
      "Ġknows": 3201,
      "ye": 3202,
      "Ġrug": 3203,
      "Ġisland": 3204,
      "ĠWhenever": 3205,
      "Ġinvited": 3206,
      "Ġwealthy": 3207,
      "Ġnormal": 3208,
      "Ġcop": 3209,
      "Ġsaying": 3210,
      "Ġswe": 3211,
      "Ġexplored": 3212,
      "Ġjoined": 3213,
      "cient": 3214,
      "ject": 3215,
      "Ġfrag": 3216,
      "Ġicy": 3217,
      "orge": 3218,
      "Ġsoar": 3219,
      "Ġweird": 3220,
      "Ġnotice": 3221,
      "Ġcrack": 3222,
      "Ġindependent": 3223,
      "Ġnumbers": 3224,
      "Ġsunflower": 3225,
      "Ġpost": 3226,
      "Ġmole": 3227,
      "Ġbrothers": 3228,
      "Ġdesign": 3229,
      "Ġpirate": 3230,
      "inary": 3231,
      "erry": 3232,
      "Ġgrap": 3233,
      "Ġbossy": 3234,
      "Ġfat": 3235,
      "Ġsmaller": 3236,
      "Ġharder": 3237,
      "ouses": 3238,
      "Ġbuilt": 3239,
      "Ġspoiled": 3240,
      "ines": 3241,
      "Ġstairs": 3242,
      "Ġancient": 3243,
      "Ġseem": 3244,
      "Ġprep": 3245,
      "ĠToday": 3246,
      "Ġguitar": 3247,
      "Ġstumbled": 3248,
      "Ġlights": 3249,
      "Ġmarch": 3250,
      "Ġchicken": 3251,
      "Ġfountain": 3252,
      "Ġsauce": 3253,
      "Ġstri": 3254,
      "Ġrode": 3255,
      "Ġenorm": 3256,
      "Ġpicking": 3257,
      "Ġbeet": 3258,
      "Ġcact": 3259,
      "Ġvalu": 3260,
      "Ġescape": 3261,
      "Ġfragile": 3262,
      "Ġenormous": 3263,
      "Ġhouses": 3264,
      "Ġresc": 3265,
      "Ġpoured": 3266,
      "Ġseeds": 3267,
      "Ġfresh": 3268,
      "Ġsuit": 3269,
      "Ġchar": 3270,
      "ĠPete": 3271,
      "Ġhose": 3272,
      "Ġenvel": 3273,
      "ÅĵLet": 3274,
      "Ġreminded": 3275,
      "ither": 3276,
      "Ġpow": 3277,
      "Ġmem": 3278,
      "upid": 3279,
      "Ġbump": 3280,
      "Ġcudd": 3281,
      "irp": 3282,
      "Ġfork": 3283,
      "Ġtrump": 3284,
      "Ġproudly": 3285,
      "Ġkinds": 3286,
      "Ġbounce": 3287,
      "Ġpractice": 3288,
      "Ġways": 3289,
      "Ġpenny": 3290,
      "Ġcity": 3291,
      "Ġpepper": 3292,
      "Ġsalad": 3293,
      "ĠAlice": 3294,
      "Ġcostum": 3295,
      "Spot": 3296,
      "Ġfrightened": 3297,
      "aid": 3298,
      "ache": 3299,
      "Ġsearching": 3300,
      "Ġchose": 3301,
      "Ġfingers": 3302,
      "Ġshells": 3303,
      "Ġadmired": 3304,
      "Ġsolve": 3305,
      "Ġcactus": 3306,
      "Ġtummy": 3307,
      "Ġwake": 3308,
      "Ġhalf": 3309,
      "Ġthirst": 3310,
      "Ġroof": 3311,
      "Ġshowing": 3312,
      "ola": 3313,
      "Ġdelighted": 3314,
      "na": 3315,
      "Ġcone": 3316,
      "Ġdull": 3317,
      "anger": 3318,
      "dom": 3319,
      "Ġnurse": 3320,
      "alk": 3321,
      "arsh": 3322,
      "Ġboats": 3323,
      "Ġbarber": 3324,
      "eorge": 3325,
      "Ġbeak": 3326,
      "Ġstage": 3327,
      "Ġstupid": 3328,
      "Ġexcitedly": 3329,
      "Ġabove": 3330,
      "berry": 3331,
      "Ġstudy": 3332,
      "Ġbatter": 3333,
      "Ġspace": 3334,
      "Ġsuggested": 3335,
      "Ġlizard": 3336,
      "Ġshone": 3337,
      "Ġcompass": 3338,
      "Ġregular": 3339,
      "Ġflashlight": 3340,
      "vice": 3341,
      "Ġhoop": 3342,
      "Ġcere": 3343,
      "Ġlocked": 3344,
      "Ġspilled": 3345,
      "Ġshape": 3346,
      "Ġattic": 3347,
      "Ġterrible": 3348,
      "Ġtooth": 3349,
      "ĠNemo": 3350,
      "Ġvaluable": 3351,
      "Ġtrumpet": 3352,
      "time": 3353,
      "arry": 3354,
      "Ġarrow": 3355,
      "ress": 3356,
      "Ġpant": 3357,
      "Ġearth": 3358,
      "Ġyet": 3359,
      "ĠBella": 3360,
      "illie": 3361,
      "Ġcheap": 3362,
      "ĠBobo": 3363,
      "Ġdesk": 3364,
      "Ġkicked": 3365,
      "Ġserious": 3366,
      "Ġsuccessful": 3367,
      "Ġthirsty": 3368,
      "Ġlow": 3369,
      "ĠDave": 3370,
      "Em": 3371,
      "het": 3372,
      "inal": 3373,
      "Ġclum": 3374,
      "Ġlab": 3375,
      "Ġscrat": 3376,
      "Ġorig": 3377,
      "com": 3378,
      "Ġow": 3379,
      "Ġrat": 3380,
      "Ġstove": 3381,
      "corn": 3382,
      "Ġavo": 3383,
      "Ġenvelope": 3384,
      "Ġwitch": 3385,
      "ĠMummy": 3386,
      "Ġthemselves": 3387,
      "Ġimpress": 3388,
      "Ġer": 3389,
      "Ġson": 3390,
      "ĠWhile": 3391,
      "aghet": 3392,
      "Ġcomb": 3393,
      "Ġbrightly": 3394,
      "Ġstops": 3395,
      "Ġthunder": 3396,
      "aghetti": 3397,
      "Ġhay": 3398,
      "Ġbees": 3399,
      "Ġstamp": 3400,
      "iew": 3401,
      "Ġlaw": 3402,
      "Ġraced": 3403,
      "Ġdreaming": 3404,
      "Ġscreen": 3405,
      "ĠMar": 3406,
      "Ġcareless": 3407,
      "Ġsniff": 3408,
      "Ġoriginal": 3409,
      "Ġwashed": 3410,
      "Ġspaghetti": 3411,
      "ĠYour": 3412,
      "Ġchanged": 3413,
      "Ġview": 3414,
      "Ġwiped": 3415,
      "ĠU": 3416,
      "uth": 3417,
      "Ġending": 3418,
      "Ġstickers": 3419,
      "Ġhelm": 3420,
      "Ġrushed": 3421,
      "ĠDucky": 3422,
      "Ġdelicate": 3423,
      "Ġwarned": 3424,
      "Ġbeetle": 3425,
      "Ġflex": 3426,
      "Ġmis": 3427,
      "gest": 3428,
      "ience": 3429,
      "isk": 3430,
      "Ġthose": 3431,
      "Ġyog": 3432,
      "Ġcarp": 3433,
      "berries": 3434,
      "Ġleaving": 3435,
      "Ġsteal": 3436,
      "Ġpersist": 3437,
      "Ġcompassion": 3438,
      "Ġclumsy": 3439,
      "Ġtor": 3440,
      "Ġbiggest": 3441,
      "!\".": 3442,
      "Ġtravel": 3443,
      "Ġdead": 3444,
      "oomy": 3445,
      "Ġpopcorn": 3446,
      "Ġdough": 3447,
      "Ġbean": 3448,
      "Ġfinding": 3449,
      "Ġenc": 3450,
      "Ġpumpkin": 3451,
      "Ġing": 3452,
      "ision": 3453,
      "Ġsne": 3454,
      "Ġtomato": 3455,
      "Ġdiscover": 3456,
      "Ġwire": 3457,
      "anny": 3458,
      "Ġlibrary": 3459,
      "While": 3460,
      "uring": 3461,
      "robe": 3462,
      "Ġgrand": 3463,
      "Ġsnee": 3464,
      "Ġdeliver": 3465,
      "Ġcomplet": 3466,
      "redient": 3467,
      "Ġgraceful": 3468,
      "Ġingredient": 3469,
      "Ġmeal": 3470,
      "Ġsorts": 3471,
      "Ġunk": 3472,
      "Ġtelling": 3473,
      "Ġcereal": 3474,
      "Ġknock": 3475,
      "Ġuncle": 3476,
      "Ġimagined": 3477,
      "Ġearly": 3478,
      "Ġpeeked": 3479,
      "âĢ": 3480,
      "Ġtask": 3481,
      "âĤ¬âĢ": 3482,
      "Ġtrap": 3483,
      "Ġhairy": 3484,
      "Ġmissing": 3485,
      "Ġcounting": 3486,
      "Ġingredients": 3487,
      "Ġadvice": 3488,
      "Ġpup": 3489,
      "uper": 3490,
      "Ġjacket": 3491,
      "Ġmel": 3492,
      "Ġshiver": 3493,
      "Ġzip": 3494,
      "Ġhumble": 3495,
      "Ġforth": 3496,
      "Ġstranger": 3497,
      "Ġsquare": 3498,
      "Ġdoesn": 3499,
      "Ġpale": 3500,
      "Ġguard": 3501,
      "Ġdestro": 3502,
      "ĠBobby": 3503,
      "Ġflexible": 3504,
      "Ġsudden": 3505,
      "Ġhipp": 3506,
      "ilty": 3507,
      "Ġplayful": 3508,
      "Ġdriving": 3509,
      "Ġguilty": 3510,
      "Ġpige": 3511,
      "Ġaunt": 3512,
      "Ġquestion": 3513,
      "Ġthinking": 3514,
      "Ġwhispered": 3515,
      "Ġimpressive": 3516,
      "Ġcards": 3517,
      "Ġnicely": 3518,
      "Ġjolly": 3519,
      "Ġcreate": 3520,
      "Ġopens": 3521,
      "Ġcollar": 3522,
      "Ġcarrying": 3523,
      "Ġslides": 3524,
      "Ġspeed": 3525,
      "nown": 3526,
      "Ġcur": 3527,
      "Ġallowed": 3528,
      "cod": 3529,
      "Ġtwirled": 3530,
      "Ġhandle": 3531,
      "Ġprint": 3532,
      "Ġsparkled": 3533,
      "Ġhunter": 3534,
      "illa": 3535,
      "Ġbrace": 3536,
      "Ġsticker": 3537,
      "Ġpopular": 3538,
      "ud": 3539,
      "Ġcush": 3540,
      "Ġumb": 3541,
      "ement": 3542,
      "Ġrub": 3543,
      "host": 3544,
      "Ġumbre": 3545,
      "fa": 3546,
      "Ġtap": 3547,
      "Ġtied": 3548,
      "Ġsink": 3549,
      "Ġanx": 3550,
      "Ġenv": 3551,
      "Ġrubb": 3552,
      "ations": 3553,
      "Ġbase": 3554,
      "Ġdisg": 3555,
      "Ġrubbed": 3556,
      "comfort": 3557,
      "bled": 3558,
      "Ġfriendship": 3559,
      "Ġcarpet": 3560,
      "tter": 3561,
      "Ġuncomfort": 3562,
      "Ġcooking": 3563,
      "Ġcharming": 3564,
      "Ġpersistent": 3565,
      "Ġdisgust": 3566,
      "Ġuncomfortable": 3567,
      "arian": 3568,
      "Ġgum": 3569,
      "Ġgira": 3570,
      "Ġshocked": 3571,
      "ĠRose": 3572,
      "Ġholds": 3573,
      "awn": 3574,
      "Ġwing": 3575,
      "ream": 3576,
      "Ġghost": 3577,
      "Ġrefused": 3578,
      "ellig": 3579,
      "ĠRed": 3580,
      "Ġperm": 3581,
      "Ġmetal": 3582,
      "Ġanxious": 3583,
      "Ġintellig": 3584,
      "Ġbutterflies": 3585,
      "Ġdolphin": 3586,
      "Ġdust": 3587,
      "Ġscatter": 3588,
      "Ġsett": 3589,
      "Ġcrocod": 3590,
      "Ġgasped": 3591,
      "Ġunknown": 3592,
      "Ġpatter": 3593,
      "Ġscoot": 3594,
      "Ġeng": 3595,
      "Ġcomput": 3596,
      "Ġpatch": 3597,
      "Ġpants": 3598,
      "loo": 3599,
      "aroo": 3600,
      "Ġneat": 3601,
      "ugged": 3602,
      "angaroo": 3603,
      "Ġspinning": 3604,
      "Ġnature": 3605,
      "Ġshel": 3606,
      "Ġkangaroo": 3607,
      "Ġchasing": 3608,
      "Ġcelebrate": 3609,
      "Ġpattern": 3610,
      "Ġled": 3611,
      "Ġmoder": 3612,
      "Ġpasta": 3613,
      "Ġwheels": 3614,
      "Ġnames": 3615,
      "Ġtruth": 3616,
      "Ġordinary": 3617,
      "Ġhammer": 3618,
      "ÅĵLetÃ¢": 3619,
      "Ġhippo": 3620,
      "Ġmask": 3621,
      "Ġsurf": 3622,
      "Ġtorn": 3623,
      "Ġencou": 3624,
      "Ow": 3625,
      "Ġresist": 3626,
      "Ġcoco": 3627,
      "Ġimpat": 3628,
      "ĠGrandpa": 3629,
      "Ġcocoa": 3630,
      "See": 3631,
      "Ġgoose": 3632,
      "Ġstat": 3633,
      "ĠAlex": 3634,
      "ÅĵIt": 3635,
      "Ġphot": 3636,
      "ĠEllie": 3637,
      "Ġacorn": 3638,
      "uddy": 3639,
      "Ġperform": 3640,
      "eer": 3641,
      "Ġbent": 3642,
      "Ġpand": 3643,
      "Ġotter": 3644,
      "ĠKim": 3645,
      "Ġgrowing": 3646,
      "Ġimpatient": 3647,
      "Ġmath": 3648,
      "iches": 3649,
      "ĠWh": 3650,
      "Ġskip": 3651,
      "Ġsnuggled": 3652,
      "Ġcrazy": 3653,
      "Ġsleeping": 3654,
      "ffee": 3655,
      "Ġprize": 3656,
      "Ġharmless": 3657,
      "Ġmodern": 3658,
      "ray": 3659,
      "Ġoat": 3660,
      "orant": 3661,
      "Ġshine": 3662,
      "Ġrece": 3663,
      "Ġscale": 3664,
      "ÅĵWhat": 3665,
      "Ġfireman": 3666,
      "Ġcrane": 3667,
      "Ġrestaur": 3668,
      "Ġmagnet": 3669,
      "Ġrestaurant": 3670,
      "Ġbeauty": 3671,
      "Ġtrash": 3672,
      "Ġwindows": 3673,
      "Ġsplit": 3674,
      "Ġattract": 3675,
      "Ġpotato": 3676,
      "Ġdestroy": 3677,
      "ĠHere": 3678,
      "Ġreind": 3679,
      "ĠFr": 3680,
      "Ġhanded": 3681,
      "Ġunpack": 3682,
      "Ġshoe": 3683,
      "Ġplaced": 3684,
      "Ġintelligent": 3685,
      "ĠMike": 3686,
      "ĠLook": 3687,
      "Ġspoke": 3688,
      "Ġcricket": 3689,
      "Go": 3690,
      "llip": 3691,
      "Ġcompassionate": 3692,
      "Ġdisgusting": 3693,
      "llipop": 3694,
      "cut": 3695,
      "Ġsofa": 3696,
      "Ġumbrella": 3697,
      "Ġtem": 3698,
      "Ġahead": 3699,
      "Ġload": 3700,
      "Ġlollipop": 3701,
      "Ġstarts": 3702,
      "noon": 3703,
      "Ġsuper": 3704,
      "Ġafternoon": 3705,
      "Ġdrawer": 3706,
      "Ġwheat": 3707,
      "Ġdistant": 3708,
      "Ġsandwiches": 3709,
      "Ġcandle": 3710,
      "Ġwaff": 3711,
      "ĠSm": 3712,
      "Ġyawn": 3713,
      "Ġignorant": 3714,
      "ince": 3715,
      "Ġchance": 3716,
      "ĠFin": 3717,
      "ĠCl": 3718,
      "ips": 3719,
      "aches": 3720,
      "Ġtriang": 3721,
      "ĠSnow": 3722,
      "Ġbracelet": 3723,
      "Ġreindeer": 3724,
      "ikes": 3725,
      "oe": 3726,
      "Ġdug": 3727,
      "Ġhedge": 3728,
      "Ġrules": 3729,
      "Ġcountry": 3730,
      "Ġspring": 3731,
      "ophone": 3732,
      "Ġpigeon": 3733,
      "aby": 3734,
      "Ġhook": 3735,
      "Ġshield": 3736,
      "Ġreco": 3737,
      "Ġflour": 3738,
      "Ġtrop": 3739,
      "Ġclock": 3740,
      "Ġbin": 3741,
      "Ġpurse": 3742,
      "Ġshut": 3743,
      "Ġcoffee": 3744,
      "ĠcouldnÃ¢": 3745,
      "Ġsupport": 3746,
      "Ġrestless": 3747,
      "Ġhung": 3748,
      "Ġcupboard": 3749,
      "Ġtire": 3750,
      "Ġharsh": 3751,
      "Ġcord": 3752,
      "Ġol": 3753,
      "Ġjug": 3754,
      "Ġorder": 3755,
      "Ġgifted": 3756,
      "Ġmailbox": 3757,
      "ĠTweetie": 3758,
      "Ġtrophy": 3759,
      "Ġsym": 3760,
      "erable": 3761,
      "Ġmay": 3762,
      "ict": 3763,
      "used": 3764,
      "Ġjumps": 3765,
      "ophie": 3766,
      "Ġnote": 3767,
      "Ġsadly": 3768,
      "Ġcats": 3769,
      "lcano": 3770,
      "Ġshrimp": 3771,
      "Ġsilver": 3772,
      "Ġmiserable": 3773,
      "af": 3774,
      "Ġsend": 3775,
      "Ġshadow": 3776,
      "ices": 3777,
      "Ġmush": 3778,
      "Ġpretending": 3779,
      "cycle": 3780,
      "Ġfilm": 3781,
      "Ġcrocodile": 3782,
      "gu": 3783,
      "Ġax": 3784,
      "Ġitself": 3785,
      "Ġleop": 3786,
      "aser": 3787,
      "ĠPolly": 3788,
      "gging": 3789,
      "Ġengine": 3790,
      "Yay": 3791,
      "cu": 3792,
      "ibb": 3793,
      "shed": 3794,
      "Ġcamp": 3795,
      "bol": 3796,
      "Ġfurther": 3797,
      "Ġcourage": 3798,
      "Ġpracticed": 3799,
      "Ġhurry": 3800,
      "Ġmelon": 3801,
      "Ġmuff": 3802,
      "Ġanywhere": 3803,
      "Ġimpro": 3804,
      "Ġobject": 3805,
      "Ġcomputer": 3806,
      "Ġsymbol": 3807,
      "gn": 3808,
      "Ġbri": 3809,
      "Ġfu": 3810,
      "Ġmill": 3811,
      "Ġvine": 3812,
      "uct": 3813,
      "Ġtrick": 3814,
      "Ġcreatures": 3815,
      "Ġgoal": 3816,
      "Ġcompl": 3817,
      "ÅĵYes": 3818,
      "Ġtowers": 3819,
      "Ġjeep": 3820,
      "Ġenth": 3821,
      "aled": 3822,
      "Ġrose": 3823,
      "Ġpainter": 3824,
      "Ġrepe": 3825,
      "Ġrice": 3826,
      "Ġstack": 3827,
      "Ġcooler": 3828,
      "Ġreading": 3829,
      "Alice": 3830,
      "Ġenvious": 3831,
      "Ġpony": 3832,
      "ĠSandy": 3833,
      "Ġstation": 3834,
      "Ġparade": 3835,
      "Ġwishes": 3836,
      "az": 3837,
      "Ġneedle": 3838,
      "Ġcryst": 3839,
      "Ġforgave": 3840,
      "Ġcartoon": 3841,
      "iron": 3842,
      "stri": 3843,
      "Ġkay": 3844,
      "ĠAre": 3845,
      "ÅĵThat": 3846,
      "ĠToby": 3847,
      "Ġtreasures": 3848,
      "Ġstretched": 3849,
      "Ġaxe": 3850,
      "Ġenthus": 3851,
      "Ġreward": 3852,
      "Ġnowhere": 3853,
      "Ġhelmet": 3854,
      "Ġattractive": 3855,
      "ric": 3856,
      "Ġjet": 3857,
      "Ġhelpless": 3858,
      "Ġlaser": 3859,
      "Ġolder": 3860,
      "ĠGive": 3861,
      "Ġbrighter": 3862,
      "Ġsecond": 3863,
      "Ġtroubled": 3864,
      "Ġletters": 3865,
      "Ġsweater": 3866,
      "Ġoy": 3867,
      "Ġscold": 3868,
      "ĠEventually": 3869,
      "Ġmessage": 3870,
      "Ġpastry": 3871,
      "Ġfootball": 3872,
      "cream": 3873,
      "Ġten": 3874,
      "Ġbadly": 3875,
      "Ġtrack": 3876,
      "Ġpackage": 3877,
      "Ġvalue": 3878,
      "ĠBrownie": 3879,
      "Ġcompetitive": 3880,
      "Ġcushion": 3881,
      "Ġscooter": 3882,
      "Ġpanda": 3883,
      "Ġpilot": 3884,
      "Ġrecogn": 3885,
      "Ġmushroom": 3886,
      "Ġtheater": 3887,
      "Ġpor": 3888,
      "ĠTr": 3889,
      "Ġsock": 3890,
      "Ġalert": 3891,
      "ĠWhere": 3892,
      "Ġpressed": 3893,
      "Ġgloomy": 3894,
      "Ġtricks": 3895,
      "Ġvisited": 3896,
      "Ġgiggle": 3897,
      "ebra": 3898,
      "Ġsalt": 3899,
      "Ġfearful": 3900,
      "Ġmicr": 3901,
      "Ġhall": 3902,
      "htub": 3903,
      "Ġspell": 3904,
      "Ġanyway": 3905,
      "ĠPe": 3906,
      "Ġbandage": 3907,
      "Ġhuman": 3908,
      "orable": 3909,
      "Ġbeep": 3910,
      "Ġswitch": 3911,
      "Ġtear": 3912,
      "ĠPaul": 3913,
      "Ġshouts": 3914,
      "Ġdeaf": 3915,
      "Ġadmire": 3916,
      "Ġbathtub": 3917,
      "Ġeraser": 3918,
      "Re": 3919,
      "ef": 3920,
      "kelet": 3921,
      "Ġvolcano": 3922,
      "Ġzebra": 3923,
      "Ġpengu": 3924,
      "Ġbarrel": 3925,
      "Ġcows": 3926,
      "Ġmicrophone": 3927,
      "orilla": 3928,
      "Ġener": 3929,
      "Ġthread": 3930,
      "Ġswinging": 3931,
      "Ġroared": 3932,
      "Ġraven": 3933,
      "Ġbounced": 3934,
      "hino": 3935,
      "Ġsoldier": 3936,
      "Ġavoc": 3937,
      "Ġleopard": 3938,
      "stairs": 3939,
      "Ġstarting": 3940,
      "Ġtray": 3941,
      "Ġstatue": 3942,
      "Ġsize": 3943,
      "Ġhive": 3944,
      "opus": 3945,
      "Ġholes": 3946,
      "Ġstrugg": 3947,
      "ctopus": 3948,
      "ĠPat": 3949,
      "Ġobser": 3950,
      "Ġnuts": 3951,
      "Ġmodest": 3952,
      "iskers": 3953,
      "ĠSmith": 3954,
      "ci": 3955,
      "year": 3956,
      "Ġsent": 3957,
      "ĠLola": 3958,
      "Ġpeach": 3959,
      "Ġadorable": 3960,
      "Benny": 3961,
      "Ġsquash": 3962,
      "ebook": 3963,
      "Ġsteps": 3964,
      "Ġriding": 3965,
      "keleton": 3966,
      "Mary": 3967,
      "Ġoctopus": 3968,
      "ckey": 3969,
      "Ġnotebook": 3970,
      "Ġhockey": 3971,
      "Ġrespectful": 3972,
      "Ġcurt": 3973,
      "Ġlip": 3974,
      "Ġshaking": 3975,
      "Ġbackpack": 3976,
      "Ġchain": 3977,
      "Ġcurtain": 3978,
      "Ġants": 3979,
      "Ġfive": 3980,
      "Ġmop": 3981,
      "Ġgorilla": 3982,
      "Ġquar": 3983,
      "Ġbehave": 3984,
      "Ġhaircut": 3985,
      "Ġwallet": 3986,
      "Ġshopkeeper": 3987,
      "ceros": 3988,
      "Ġfilthy": 3989,
      "strich": 3990,
      "hinoceros": 3991,
      "Ġeither": 3992,
      "Ġur": 3993,
      "ceed": 3994,
      "Ġboots": 3995,
      "Ġpulls": 3996,
      "Ġtripped": 3997,
      "Ġpapers": 3998,
      "Ġstirred": 3999,
      "Give": 4000,
      "If": 4001,
      "Ġpad": 4002,
      "ĠMandy": 4003,
      "Ġnobody": 4004,
      "Ġsunset": 4005,
      "Ġexplain": 4006,
      "Ġchecked": 4007,
      "Ġsandbox": 4008,
      "ccol": 4009,
      "arnt": 4010,
      "Ġlearnt": 4011,
      "Ġsort": 4012,
      "Ġavail": 4013,
      "Ġdecorate": 4014,
      "ccoli": 4015,
      "erc": 4016,
      "Ġmug": 4017,
      "Ġpun": 4018,
      "Ġgolf": 4019,
      "Ġmeas": 4020,
      "ĠGeorge": 4021,
      "ĠRo": 4022,
      "Ġpushing": 4023,
      "Ġmotorcycle": 4024,
      "Ġrescue": 4025,
      "Ġcrystal": 4026,
      "ipping": 4027,
      "Ġrhinoceros": 4028,
      "Ġsomewhere": 4029,
      "Ġvest": 4030,
      "Ġpebble": 4031,
      "Ġart": 4032,
      "Ġlightning": 4033,
      "Ġsailor": 4034,
      "Ġcooked": 4035,
      "Ġpowder": 4036,
      "iest": 4037,
      "Ġstared": 4038,
      "Ġshort": 4039,
      "ief": 4040,
      "Ġclapping": 4041,
      "Ġrolling": 4042,
      "Ġgiraffe": 4043,
      "Ġporch": 4044,
      "Ġskeleton": 4045,
      "Ġdess": 4046,
      "ĠBunny": 4047,
      "Ġvi": 4048,
      "ĠEverything": 4049,
      "Ġjokes": 4050,
      "Ġexper": 4051,
      "ses": 4052,
      "Ġbet": 4053,
      "render": 4054,
      "Ġincl": 4055,
      "Ġunlock": 4056,
      "Ġavailable": 4057,
      "reci": 4058,
      "Ġcomet": 4059,
      "ĠBuddy": 4060,
      "sely": 4061,
      "Ġtrains": 4062,
      "Ġdishes": 4063,
      "Ġpoint": 4064,
      "Ġorganize": 4065,
      "Ġsucceed": 4066,
      "Ġkayak": 4067,
      "par": 4068,
      "Ġhappier": 4069,
      "seum": 4070,
      "Ġexerc": 4071,
      "Ġleash": 4072,
      "ucked": 4073,
      "Ġquite": 4074,
      "enry": 4075,
      "ooped": 4076,
      "Ġstom": 4077,
      "Ġhadn": 4078,
      "Ġsepar": 4079,
      "Ġlaund": 4080,
      "astic": 4081,
      "Ġlistening": 4082,
      "osie": 4083,
      "Ġbarking": 4084,
      "Ġpaws": 4085,
      "Ġfrowned": 4086,
      "hood": 4087,
      "ube": 4088,
      "Ġtur": 4089,
      "Ġtoil": 4090,
      "elery": 4091,
      "Ġmuseum": 4092,
      "Ġcolours": 4093,
      "Ġclimbing": 4094,
      "Ġappreci": 4095,
      "Ġcomplete": 4096,
      "Ġtriangle": 4097,
      "Ġcase": 4098,
      "Ġweather": 4099,
      "Ġseal": 4100,
      "ummer": 4101,
      "Ġpeek": 4102,
      "Ġunh": 4103,
      "Ġzipper": 4104,
      "Ġdessert": 4105,
      "Ġlaundry": 4106,
      "night": 4107,
      "ĠSh": 4108,
      "Ġcane": 4109,
      "Ġbroccoli": 4110,
      "ĠJoey": 4111,
      "Little": 4112,
      "inking": 4113,
      "Ġreef": 4114,
      "ĠMaria": 4115,
      "ĠWhiskers": 4116,
      "ubby": 4117,
      "Ġiron": 4118,
      "Ġputting": 4119,
      "Ġclosely": 4120,
      "Ġpushes": 4121,
      "Ġmonkeys": 4122,
      "Ġsurrender": 4123,
      "Jenny": 4124,
      "cast": 4125,
      "Ġpipe": 4126,
      "Ġyach": 4127,
      "Ġspir": 4128,
      "Ġbreat": 4129,
      "Ġlions": 4130,
      "Ġblowing": 4131,
      "come": 4132,
      "io": 4133,
      "Ġsle": 4134,
      "Ġped": 4135,
      "urb": 4136,
      "Ġmarched": 4137,
      "Ġdisturb": 4138,
      "Ġspeak": 4139,
      "Ġturkey": 4140,
      "Ġtoilet": 4141,
      "Bye": 4142,
      "aked": 4143,
      "ges": 4144,
      "ron": 4145,
      "Ġbicy": 4146,
      "Ġfinds": 4147,
      "Ġskill": 4148,
      "Ġdrawings": 4149,
      "Ġbarks": 4150,
      "Ġlively": 4151,
      "Ġstuffed": 4152,
      "heart": 4153,
      "Ġnail": 4154,
      "Ġrever": 4155,
      "ĠAndy": 4156,
      "Ġpair": 4157,
      "Ġsandcast": 4158,
      "Ġnapkin": 4159,
      "Ġended": 4160,
      "Ġdancer": 4161,
      "Ġpolish": 4162,
      "Ġcostume": 4163,
      "ĠSnowy": 4164,
      "Ġyacht": 4165,
      "Ġostrich": 4166,
      "anic": 4167,
      "Ġink": 4168,
      "Ġfort": 4169,
      "Ġsoftly": 4170,
      "Ġmild": 4171,
      "iling": 4172,
      "Ġribb": 4173,
      "chanic": 4174,
      "ected": 4175,
      "Ġraining": 4176,
      "olin": 4177,
      "gs": 4178,
      "vator": 4179,
      "Ġtube": 4180,
      "Ġlid": 4181,
      "Ġoil": 4182,
      "Ġclub": 4183,
      "Ġchubby": 4184,
      "Ġuniver": 4185,
      "Ġappl": 4186,
      "Ġthanks": 4187,
      "Ġinf": 4188,
      "ecause": 4189,
      "Ġmechanic": 4190,
      "ĠWill": 4191,
      "play": 4192,
      "Ġcrow": 4193,
      "Ġpiano": 4194,
      "ĠGrace": 4195,
      "Ġelevator": 4196,
      "Ġbasketball": 4197,
      "aulif": 4198,
      "Ġbubble": 4199,
      "Ġhoping": 4200,
      "Ġbelt": 4201,
      "Ġmixer": 4202,
      "Ġstrip": 4203,
      "Ġunhappy": 4204,
      "Ġcaulif": 4205,
      "ison": 4206,
      "Ġglove": 4207,
      "Ġairport": 4208,
      "Ġspirit": 4209,
      "Ġwife": 4210,
      "Ġbikes": 4211,
      "Ġhut": 4212,
      "ites": 4213,
      "Ġinsist": 4214,
      "Ġpress": 4215,
      "Ġjudge": 4216,
      "Ġcups": 4217,
      "Ġwelcomed": 4218,
      "Ġframe": 4219,
      "Ġmagaz": 4220,
      "Ġgrabs": 4221,
      "Everyone": 4222,
      "Ġdrops": 4223,
      "Ġleaned": 4224,
      "edy": 4225,
      "Ġmama": 4226,
      "Ġthief": 4227,
      "stic": 4228,
      "Ġgrapes": 4229,
      "âĤ¬âĢľ": 4230,
      "Ġquarrel": 4231,
      "mand": 4232,
      "Ġevening": 4233,
      "Ġprov": 4234,
      "Ġrepair": 4235,
      "Ġbaseball": 4236,
      "Ġtemp": 4237,
      "ws": 4238,
      "Ġcelery": 4239,
      "ĠMillie": 4240,
      "Ġfactor": 4241,
      "iastic": 4242,
      "Ġbuzz": 4243,
      "Ġimagine": 4244,
      "Ġradish": 4245,
      "arlie": 4246,
      "Ġapologized": 4247,
      "Ġsneak": 4248,
      "Ġenthusiastic": 4249,
      "Ġoyster": 4250,
      "Ġtub": 4251,
      "Ġluck": 4252,
      "Ġmen": 4253,
      "Ġrag": 4254,
      "Ġdisplay": 4255,
      "Ġgiven": 4256,
      "Ġcounter": 4257,
      "Ġbreaks": 4258,
      "Ġcherries": 4259,
      "Ġshelter": 4260,
      "ĠBear": 4261,
      "Ġmule": 4262,
      "ĠdidnÃ¢": 4263,
      "Ġmarry": 4264,
      "Ġveil": 4265,
      "Ġzoomed": 4266,
      "Ġfactory": 4267,
      "aff": 4268,
      "azz": 4269,
      "zzy": 4270,
      "ĠBill": 4271,
      "Ġfisher": 4272,
      "Ġbicycle": 4273,
      "Ġlend": 4274,
      "Ġshade": 4275,
      "Ġfeelings": 4276,
      "Ġenergy": 4277,
      "Ġpoem": 4278,
      "Ġbul": 4279,
      "Ġhopes": 4280,
      "Ġfrogs": 4281,
      "Ġcauliflower": 4282,
      "imney": 4283,
      "Ġrod": 4284,
      "Ġprun": 4285,
      "Ġchimney": 4286,
      "Ġbears": 4287,
      "Grandma": 4288,
      "Daisy": 4289,
      "Ġfurn": 4290,
      "iture": 4291,
      "Ġweep": 4292,
      "Ġpole": 4293,
      "Ġstretch": 4294,
      "Ġfurniture": 4295,
      "Ġgym": 4296,
      "Ġplayer": 4297,
      "apa": 4298,
      "Ġraft": 4299,
      "Ġmaze": 4300,
      "Ġpaid": 4301,
      "Ġbulb": 4302,
      "ense": 4303,
      "any": 4304,
      "Ġstaff": 4305,
      "chair": 4306,
      "Ġshakes": 4307,
      "icer": 4308,
      "ippery": 4309,
      "ccer": 4310,
      "Ġdive": 4311,
      "Ġsoccer": 4312,
      "Ġlives": 4313,
      "Ġkitty": 4314,
      "rod": 4315,
      "Ġintrod": 4316,
      "Ġslippery": 4317,
      "Ġcheek": 4318,
      "Ġattention": 4319,
      "Ġneighbour": 4320,
      "Ġsheet": 4321,
      "Ġnews": 4322,
      "Ġtrail": 4323,
      "Ġsmells": 4324,
      "Ġfalling": 4325,
      "Ġperfectly": 4326,
      "Ġphoto": 4327,
      "Ġviolin": 4328,
      "eath": 4329,
      "gen": 4330,
      "Ġbur": 4331,
      "Ġpine": 4332,
      "Ġknot": 4333,
      "ĠJerry": 4334,
      "Ġchirp": 4335,
      "Ġquit": 4336,
      "ĠRu": 4337,
      "ĠRosie": 4338,
      "Ġmarried": 4339,
      "Ġbananas": 4340,
      "Ġsummer": 4341,
      "Ġlang": 4342,
      "Ġpage": 4343,
      "Ġlie": 4344,
      "Ġfirework": 4345,
      "Ġsweetheart": 4346,
      "Ġcrib": 4347,
      "Ġlangu": 4348,
      "Ġlime": 4349,
      "Ġonion": 4350,
      "Ġreve": 4351,
      "Ġarmchair": 4352,
      "Ġsprink": 4353,
      "Ġbelongs": 4354,
      "Ġcardboard": 4355,
      "Ġgolden": 4356,
      "Ġcabinet": 4357,
      "ait": 4358,
      "low": 4359,
      "men": 4360,
      "Ġsir": 4361,
      "aring": 4362,
      "Ġgro": 4363,
      "ories": 4364,
      "Ġshouldn": 4365,
      "Ġwool": 4366,
      "ĠSophie": 4367,
      "ĠWould": 4368,
      "ĠLee": 4369,
      "Ġtrave": 4370,
      "Ġsticky": 4371,
      "Ġpuddles": 4372,
      "TMm": 4373,
      "Ġfields": 4374,
      "Ġtuna": 4375,
      "Ġchickens": 4376,
      "bul": 4377,
      "ĠSee": 4378,
      "stead": 4379,
      "Ġscolded": 4380,
      "inarian": 4381,
      "Ġswung": 4382,
      "Ġvide": 4383,
      "ÅĵYou": 4384,
      "eterinarian": 4385,
      "..": 4386,
      "Ġtherm": 4387,
      "Ġsoil": 4388,
      "Ġstraight": 4389,
      "Ġburned": 4390,
      "Ġavocado": 4391,
      "eve": 4392,
      "Ġherb": 4393,
      "Ġrot": 4394,
      "hero": 4395,
      "ometer": 4396,
      "Ġflies": 4397,
      "Ġveterinarian": 4398,
      "Ġprevent": 4399,
      "izes": 4400,
      "reeze": 4401,
      "Ġdisag": 4402,
      "Ġpirates": 4403,
      "Ġfisherman": 4404,
      "ween": 4405,
      "Ġnovel": 4406,
      "aud": 4407,
      "Ġoffer": 4408,
      "Ġshovel": 4409,
      "Ġcreated": 4410,
      "Ġpetals": 4411,
      "Ġjourn": 4412,
      "Ġimagination": 4413,
      "Daddy": 4414,
      "Ġsuperhero": 4415,
      "Ġbetween": 4416,
      "Ġmeeting": 4417,
      "Ġclassroom": 4418,
      "Ġglowing": 4419,
      "hic": 4420,
      "Ġplastic": 4421,
      "Ġtwink": 4422,
      "Ġopera": 4423,
      "Ġvehic": 4424,
      "Ġkingdom": 4425,
      "Ġmistakes": 4426,
      "Ġmemories": 4427,
      "Ġthermometer": 4428,
      "Ch": 4429,
      "Ġble": 4430,
      "Ġcell": 4431,
      "Ġpal": 4432,
      "unately": 4433,
      "Ġseeing": 4434,
      "Ġshoulder": 4435,
      "ĠKate": 4436,
      "anges": 4437,
      "Ġthrows": 4438,
      "Ġfishing": 4439,
      "aw": 4440,
      "lass": 4441,
      "Ġmeat": 4442,
      "Ġceiling": 4443,
      "Ġpassport": 4444,
      "Ġignored": 4445,
      "Ġjellyfish": 4446,
      "Ġslept": 4447,
      "ues": 4448,
      "Ġtax": 4449,
      "ĠBun": 4450,
      "Ġforgotten": 4451,
      "Ġcelebrated": 4452,
      "Ġradio": 4453,
      "Ġskirt": 4454,
      "Ġdoors": 4455,
      "ngth": 4456,
      "Ġteleph": 4457,
      "Ġjournal": 4458,
      "Next": 4459,
      "rs": 4460,
      "Ġoak": 4461,
      "Ġmakeup": 4462,
      "Ġheads": 4463,
      "Ġpresents": 4464,
      "Ġaccepted": 4465,
      "Ġtelephone": 4466,
      "Because": 4467,
      "arm": 4468,
      "Ġstro": 4469,
      "Ġallig": 4470,
      "Your": 4471,
      "agg": 4472,
      "Ġflame": 4473,
      "ĠdonÃ¢": 4474,
      "Ġstrength": 4475,
      "Ġvend": 4476,
      "Ġthrowing": 4477,
      "Ġpinch": 4478,
      "Today": 4479,
      "Ġinfant": 4480,
      "ents": 4481,
      "Ġvet": 4482,
      "Emma": 4483,
      "Ġfile": 4484,
      "chie": 4485,
      "Ġloop": 4486,
      "Ġswamp": 4487,
      "Ġambul": 4488,
      "Ġpoints": 4489,
      "Inside": 4490,
      "Together": 4491,
      "ĠTrue": 4492,
      "Ġapplaud": 4493,
      "Ġgrocer": 4494,
      "Ġtaxi": 4495,
      "Eventually": 4496,
      "drobe": 4497,
      "vision": 4498,
      "urch": 4499,
      "Ġalive": 4500,
      "Ġwriting": 4501,
      "Ġshouting": 4502,
      "Ġbaking": 4503,
      "Ġplanet": 4504,
      "Ġwardrobe": 4505,
      "Ġrubber": 4506,
      "te": 4507,
      "Ġcree": 4508,
      "ores": 4509,
      "Ġseas": 4510,
      "Ġworth": 4511,
      "Ġsung": 4512,
      "Ġcube": 4513,
      "Ġdiscu": 4514,
      "Ġsteam": 4515,
      "Ġwinter": 4516,
      "Ġlemonade": 4517,
      "achel": 4518,
      "Ġmagazine": 4519,
      "Ġpalace": 4520,
      "Ġcreek": 4521,
      "Ġwags": 4522,
      "Ġfle": 4523,
      "Ġitch": 4524,
      "bbie": 4525,
      "Ġshower": 4526,
      "ĠInstead": 4527,
      "Ġdiary": 4528,
      "Ġsquirrels": 4529,
      "Ġattach": 4530,
      "Ġfolder": 4531,
      "Ġhanging": 4532,
      "Ġtelevision": 4533,
      "Ġstrawberry": 4534,
      "bor": 4535,
      "ium": 4536,
      "Ġaut": 4537,
      "Ġstable": 4538,
      "Ġboot": 4539,
      "Ġquack": 4540,
      "Ġgreedy": 4541,
      "Ġfog": 4542,
      "ĠPapa": 4543,
      "ggy": 4544,
      "nam": 4545,
      "Ġinse": 4546,
      "ssible": 4547,
      "Ġflapped": 4548,
      "Ġparent": 4549,
      "Ġprepare": 4550,
      "ĠAb": 4551,
      "Ġhelper": 4552,
      "Ġknob": 4553,
      "ĠLilly": 4554,
      "Ġchalk": 4555,
      "Ġfollows": 4556,
      "Ġsailing": 4557,
      "Ġsurround": 4558,
      "Ġmystery": 4559,
      "Ġmedal": 4560,
      "Ġsprayed": 4561,
      "ito": 4562,
      "Ġpra": 4563,
      "icop": 4564,
      "Ġvac": 4565,
      "Ġornam": 4566,
      "Ġmoves": 4567,
      "ĠNext": 4568,
      "Ġdisappear": 4569,
      "Ġserve": 4570,
      "Ġhelicop": 4571,
      "Ġargue": 4572,
      "Ġalligator": 4573,
      "Ġambulance": 4574,
      "Ġhelicopter": 4575,
      "sit": 4576,
      "tress": 4577,
      "ĠHelp": 4578,
      "ĠBaby": 4579,
      "Ġgrin": 4580,
      "Ġbelow": 4581,
      "Ġsigns": 4582,
      "Ġmattress": 4583,
      "Ġharbor": 4584,
      "Ġwaving": 4585,
      "una": 4586,
      "ĠJess": 4587,
      "rosc": 4588,
      "Ġdressed": 4589,
      "Ġfreez": 4590,
      "Ġstud": 4591,
      "Ġeagerly": 4592,
      "ĠUn": 4593,
      "lasses": 4594,
      "Ġsunglasses": 4595,
      "ĠSu": 4596,
      "Ġknown": 4597,
      "ups": 4598,
      "Ġminute": 4599,
      "Ġmicrosc": 4600,
      "ÅĵItÃ¢": 4601,
      "Ġvendor": 4602,
      "ab": 4603,
      "lier": 4604,
      "Ġpopped": 4605,
      "Ġfiref": 4606,
      "Ġcherry": 4607,
      "Ġmicroscope": 4608,
      "case": 4609,
      "Ġwine": 4610,
      "ising": 4611,
      "imi": 4612,
      "igail": 4613,
      "Ġweigh": 4614,
      "Ġrequ": 4615,
      "Ġrooms": 4616,
      "Ġgrill": 4617,
      "Ġletting": 4618,
      "Ġfallen": 4619,
      "Ġapart": 4620,
      "ĠAnnie": 4621,
      "Ġfauc": 4622,
      "Ġpear": 4623,
      "Ġberry": 4624,
      "Ġrefre": 4625,
      "Ġcomplain": 4626,
      "Ġlanguage": 4627,
      "Did": 4628,
      "elcome": 4629,
      "Ġlawn": 4630,
      "estig": 4631,
      "ĠCo": 4632,
      "Ġblackboard": 4633,
      "Ġinvestig": 4634,
      "Ġeasily": 4635,
      "Ġwipe": 4636,
      "Ann": 4637,
      "mm": 4638,
      "Ġbreeze": 4639,
      "inky": 4640,
      "Ġheaded": 4641,
      "Ġquietly": 4642,
      "aggie": 4643,
      "Ġfaucet": 4644,
      "tain": 4645,
      "Ġsince": 4646,
      "Ġcared": 4647,
      "omob": 4648,
      "iday": 4649,
      "Ġthumb": 4650,
      "amb": 4651,
      "Ġcob": 4652,
      "Ġtaller": 4653,
      "Ġentered": 4654,
      "ĠGod": 4655,
      "Ġcrossed": 4656,
      "Ġwhisper": 4657,
      "Ġhappens": 4658,
      "Ġleak": 4659,
      "quito": 4660,
      "Ġpoked": 4661,
      "Ġsque": 4662,
      "Ġchairs": 4663,
      "Ġearlier": 4664,
      "Ġkisses": 4665,
      "Ġrelaxed": 4666,
      "Ġreverse": 4667,
      "Ġautomob": 4668,
      "Ġig": 4669,
      "Ġsuff": 4670,
      "Ġfought": 4671,
      "Ġpur": 4672,
      "atie": 4673,
      "Ġstad": 4674,
      "Ġmusician": 4675,
      "Ġregret": 4676,
      "Ġcrawling": 4677,
      "Ġimprove": 4678,
      "Ġexercise": 4679,
      "Ġigloo": 4680,
      "Ġstadium": 4681,
      "Ġwaste": 4682,
      "ĠIÃ¢": 4683,
      "Ġalarm": 4684,
      "Ġcaring": 4685,
      "Ġchurch": 4686,
      "asis": 4687,
      "Ġdelay": 4688,
      "Ġdresses": 4689,
      "Ġcrash": 4690,
      "Ġapron": 4691,
      "Ġsniffed": 4692,
      "Ġwaffle": 4693,
      "Ġvacation": 4694,
      "Ġrequest": 4695,
      "Ġwigg": 4696,
      "Ġlumber": 4697,
      "chor": 4698,
      "Ġcliff": 4699,
      "Ġfastest": 4700,
      "Ġbalan": 4701,
      "Ġolive": 4702,
      "Ġseparate": 4703,
      "Ġinvestigate": 4704,
      "liday": 4705,
      "web": 4706,
      "yer": 4707,
      "Ġsizes": 4708,
      "ĠTony": 4709,
      "Ġpoke": 4710,
      "Ġholiday": 4711,
      "Ġairpl": 4712,
      "Ġinsect": 4713,
      "'.": 4714,
      "Lisa": 4715,
      "Ġoasis": 4716,
      "Ġsaus": 4717,
      "ĠWho": 4718,
      "Ġvroom": 4719,
      "Ġsurprises": 4720,
      "Ġappro": 4721,
      "Ġsparkle": 4722,
      "Ġpuzzles": 4723,
      "Ġskills": 4724,
      "squito": 4725,
      "Ġcable": 4726,
      "uckily": 4727,
      "Ġmosquito": 4728,
      "Thanks": 4729,
      "Ġscrew": 4730,
      "orses": 4731,
      "Ġshrink": 4732,
      "Ġyogurt": 4733,
      "Ġaer": 4734,
      "ero": 4735,
      "Ġyield": 4736,
      "Ġreaches": 4737,
      "opl": 4738,
      "Ġlotion": 4739,
      "Ġamazement": 4740,
      "Ġdear": 4741,
      "Ġspots": 4742,
      "fortunately": 4743,
      "Ġbouncing": 4744,
      "Ġdestination": 4745,
      "Ġscattered": 4746,
      "Ġcobweb": 4747,
      "Ġaeropl": 4748,
      "iately": 4749,
      "ler": 4750,
      "right": 4751,
      "Ġtucked": 4752,
      "Ġhorses": 4753,
      "ety": 4754,
      "Ġisn": 4755,
      "mediately": 4756,
      "Ġincre": 4757,
      "Ġsupply": 4758,
      "Ġsplashing": 4759,
      "Ġlawyer": 4760,
      "Wait": 4761,
      "was": 4762,
      "Ġrake": 4763,
      "sters": 4764,
      "Ġoranges": 4765,
      "Ġfloat": 4766,
      "Ġmint": 4767,
      "Ġsafety": 4768,
      "Ġtrusted": 4769,
      "Ġdishwas": 4770,
      "Ġdishwasher": 4771,
      "mend": 4772,
      "oral": 4773,
      "Ġunif": 4774,
      "Ġhearts": 4775,
      "Ġmailman": 4776,
      "Ġcollected": 4777,
      "Ġflutter": 4778,
      "Ġyawned": 4779,
      "Ġvehicle": 4780,
      "ives": 4781,
      "Ġpit": 4782,
      "ommend": 4783,
      "ĠitÃ¢": 4784,
      "Ġanchor": 4785,
      "aces": 4786,
      "Ġblueberries": 4787,
      "Ġfloated": 4788,
      "Ġshrugged": 4789,
      "Ġshooting": 4790,
      "Ġsqueeze": 4791,
      "Ġbother": 4792,
      "Ġsaving": 4793,
      "Ġlaught": 4794,
      "Ġrabbits": 4795,
      "Ġcastles": 4796,
      "Ġrecommend": 4797,
      "Ġspending": 4798,
      "ĠBuzz": 4799,
      "Ġmuffin": 4800,
      "Ġautomobile": 4801,
      "Is": 4802,
      "nger": 4803,
      "Ġtut": 4804,
      "Ġtug": 4805,
      "inked": 4806,
      "icing": 4807,
      "place": 4808,
      "Ġpoppy": 4809,
      "ction": 4810,
      "Ġdemand": 4811,
      "ĠRe": 4812,
      "Ġchoice": 4813,
      "Ġexamine": 4814,
      "Ġachie": 4815,
      "omes": 4816,
      "Ġlicks": 4817,
      "raged": 4818,
      "Ġspade": 4819,
      "ops": 4820,
      "âĤ¬.": 4821,
      "Ġquiz": 4822,
      "Ġhurting": 4823,
      "Ġconf": 4824,
      "Ġsparkling": 4825,
      "Ġworms": 4826,
      "Ġcandles": 4827,
      "Ġexperience": 4828,
      "Ġribbon": 4829,
      "ĠJames": 4830,
      "Ġkneel": 4831,
      "Ġstruc": 4832,
      "Ġbookcase": 4833,
      "Ġfollowing": 4834,
      "Ġsqueezed": 4835,
      "Ġuniform": 4836,
      "Ġlaughter": 4837,
      "Ġstructure": 4838,
      "ĠBet": 4839,
      "ĠMimi": 4840,
      "Ġagree": 4841,
      "Ġeaten": 4842,
      "Ġburied": 4843,
      "Ġraz": 4844,
      "Ġremove": 4845,
      "Sammy": 4846,
      "Ġbumped": 4847,
      "Ġpenguin": 4848,
      "Ġpraised": 4849,
      "Ġsigh": 4850,
      "Ġmention": 4851,
      "Ġplates": 4852,
      "Ġbury": 4853,
      "ĠCharlie": 4854,
      "Ġbeans": 4855,
      "Ġinclud": 4856,
      "Ġvideo": 4857,
      "cakes": 4858,
      "Ġsings": 4859,
      "Ġtong": 4860,
      "Ġrise": 4861,
      "Ġplays": 4862,
      "Ġspear": 4863,
      "Ġsnap": 4864,
      "Ġchess": 4865,
      "Ġinstr": 4866,
      "Ġminer": 4867,
      "Ġfuel": 4868,
      "Ġflea": 4869,
      "nies": 4870,
      "sing": 4871,
      "ĊĠ": 4872,
      "Ġsimp": 4873,
      "Ġscooped": 4874,
      "Ġblinked": 4875,
      "Ġhills": 4876,
      "Ġtornado": 4877,
      "Yuck": 4878,
      "Ġwashing": 4879,
      "Ġequ": 4880,
      "Ġsnapped": 4881,
      "Ġunderstanding": 4882,
      "ĠOr": 4883,
      "Ġignore": 4884,
      "Ġringing": 4885,
      "Ġcaptain": 4886,
      "ival": 4887,
      "Ġbattery": 4888,
      "Ġsettled": 4889,
      "Ġdestroyed": 4890,
      "Ġrazor": 4891,
      "Ġdried": 4892,
      "Ġmall": 4893,
      "ionary": 4894,
      "Ġkeeping": 4895,
      "Ġideas": 4896,
      "Ġgrowled": 4897,
      "Ġblankets": 4898,
      "Ġappreciate": 4899,
      "ĠRuby": 4900,
      "Ġtoes": 4901,
      "Ġpalm": 4902,
      "ĠRachel": 4903,
      "Ġadmir": 4904,
      "ictionary": 4905,
      "ib": 4906,
      "Ġfest": 4907,
      "ĠHenry": 4908,
      "ĠMiss": 4909,
      "Ġmanage": 4910,
      "Ġwatches": 4911,
      "Ġglo": 4912,
      "Ġfireplace": 4913,
      "ĠKing": 4914,
      "Ġsits": 4915,
      "Ġenter": 4916,
      "Ġwandered": 4917,
      "ĠClara": 4918,
      "Ġsandcastle": 4919,
      "Ġaeroplane": 4920,
      "Will": 4921,
      "ived": 4922,
      "ĠTed": 4923,
      "Ġmyself": 4924,
      "omeday": 4925,
      "Ġlabel": 4926,
      "Ġbleed": 4927,
      "Peter": 4928,
      "apping": 4929,
      "Ġdictionary": 4930,
      "Ġport": 4931,
      "ĠHarry": 4932,
      "amber": 4933,
      "Ġbravely": 4934,
      "Ġcoats": 4935,
      "Ġmelted": 4936,
      "Ġtide": 4937,
      "Ġyucky": 4938,
      "alley": 4939,
      "Ġjunk": 4940,
      "ĠDanny": 4941,
      "Ġsetting": 4942,
      "Ġjewelry": 4943,
      "Ġstrawberries": 4944,
      "Ġyoga": 4945,
      "Ġoats": 4946,
      "Ġfreezer": 4947,
      "loe": 4948,
      "ring": 4949,
      "Ġtore": 4950,
      "ĠIts": 4951,
      "Ġscore": 4952,
      "Ġroot": 4953,
      "Ġclaws": 4954,
      "uggage": 4955,
      "Ġsneeze": 4956,
      "Ġstomach": 4957,
      "Ġtutor": 4958,
      "Ġluggage": 4959,
      "Ġpages": 4960,
      "Ġpride": 4961,
      "Ġtrade": 4962,
      "Ġclimbs": 4963,
      "Ġgifts": 4964,
      "With": 4965,
      "Ġsomeday": 4966,
      "bey": 4967,
      "ĠSpike": 4968,
      "Ġfloating": 4969,
      "Ġmoments": 4970,
      "Ġplanes": 4971,
      "Ġhits": 4972,
      "Ġvanished": 4973,
      "Ġscratch": 4974,
      "Ġairplane": 4975,
      "Fl": 4976,
      "Ġbeamed": 4977,
      "Ġprop": 4978,
      "Ġappear": 4979,
      "Mandy": 4980,
      "umble": 4981,
      "antly": 4982,
      "Ġbelieved": 4983,
      "Ġbeef": 4984,
      "Ġsub": 4985,
      "Ġrepeat": 4986,
      "Ġstruggling": 4987,
      "rise": 4988,
      "Ġga": 4989,
      "ĠIs": 4990,
      "Ġweap": 4991,
      "Ġblueberry": 4992,
      "Ġburning": 4993,
      "ĠBefore": 4994,
      "Ġtemple": 4995,
      "ah": 4996,
      "ls": 4997,
      "vet": 4998,
      "Ġdire": 4999,
      "Ġitem": 5000,
      "Ġchores": 5001,
      "Ġvalley": 5002,
      "Ġjogging": 5003,
      "emember": 5004,
      "Ġdrain": 5005,
      "Ġelephants": 5006,
      "Ġwhistling": 5007,
      "ĠSteve": 5008,
      "Ġweeks": 5009,
      "Ġtongue": 5010,
      "ĠTina": 5011,
      "ishing": 5012,
      "Ġgear": 5013,
      "Ġnation": 5014,
      "Ġshot": 5015,
      "Ġsport": 5016,
      "Ġimmediately": 5017,
      "Ġcalls": 5018,
      "Ġremain": 5019,
      "ission": 5020,
      "Ġcuddled": 5021,
      "Ġpermission": 5022,
      "Ġfestival": 5023,
      "Ġlily": 5024,
      "lend": 5025,
      "Ġhers": 5026,
      "Ġres": 5027,
      "Ġranch": 5028,
      "Ġchamber": 5029,
      "Ġpoison": 5030,
      "Ġsunrise": 5031,
      "Ġraise": 5032,
      "Ġcrunch": 5033,
      "Ġteaching": 5034,
      "Ġbathe": 5035,
      "house": 5036,
      "iers": 5037,
      "Ġhomes": 5038,
      "Ġpulling": 5039,
      "Ġsteak": 5040,
      "Ġpatiently": 5041,
      "Ġmarbles": 5042,
      "Ġbreathe": 5043,
      "Ġprovide": 5044,
      "Ġhesit": 5045,
      "ĠHave": 5046,
      "uture": 5047,
      "seek": 5048,
      "ĠEach": 5049,
      "aped": 5050,
      "Ġcalend": 5051,
      "Ġpeanuts": 5052,
      "ĠAbigail": 5053,
      "Ġcalendar": 5054,
      "'ve": 5055,
      "osed": 5056,
      "Ġfuture": 5057,
      "Ġstitch": 5058,
      "Ġjazz": 5059,
      "Ġspit": 5060,
      "Ġwarmth": 5061,
      "Ġpaused": 5062,
      "Ġbuckle": 5063,
      "Ġpastel": 5064,
      "Ġcollecting": 5065,
      "Ġticket": 5066,
      "ĠFreddy": 5067,
      "allow": 5068,
      "ipment": 5069,
      "Ġthrilled": 5070,
      "TMre": 5071,
      "ĠGood": 5072,
      "Ġdifferen": 5073,
      "Ġhotel": 5074,
      "Ġprayed": 5075,
      "Ġapproached": 5076,
      "Ġgust": 5077,
      "Ġshed": 5078,
      "fume": 5079,
      "Ġalright": 5080,
      "Ġtease": 5081,
      "Ġwarning": 5082,
      "Ġencouraged": 5083,
      "Ġchirping": 5084,
      "Ġequipment": 5085,
      "Jen": 5086,
      "Mark": 5087,
      "Tweet": 5088,
      "Ġdaisy": 5089,
      "Ġbegged": 5090,
      "Ġsocks": 5091,
      "Ġshamp": 5092,
      "Ġcoal": 5093,
      "Ġskull": 5094,
      "Ġskipping": 5095,
      "Ġperfume": 5096,
      "Ġanswers": 5097,
      "Ġmissile": 5098,
      "Ġpanic": 5099,
      "Ġearthqu": 5100,
      "Ġpunish": 5101,
      "Ġinsisted": 5102,
      "Ġshampoo": 5103,
      "Ġcakes": 5104,
      "Ġnone": 5105,
      "Ġlick": 5106,
      "Ġrestore": 5107,
      "osity": 5108,
      "Ġsoldiers": 5109,
      "Ġtwisted": 5110,
      "mother": 5111,
      "These": 5112,
      "Ġmeowed": 5113,
      "Ġdoggy": 5114,
      "Ġhardly": 5115,
      "xture": 5116,
      "Ġguy": 5117,
      "Ġrespons": 5118,
      "Ġsolved": 5119,
      "Ġjewels": 5120,
      "Ġreceived": 5121,
      "Ġobserve": 5122,
      "Qu": 5123,
      "Welcome": 5124,
      "Ġlect": 5125,
      "Ġevent": 5126,
      "Ġsore": 5127,
      "Ġlic": 5128,
      "Ġsew": 5129,
      "Ġunite": 5130,
      "Ġreceive": 5131,
      "Ġbricks": 5132,
      "Ġrevealed": 5133,
      "Ġlecture": 5134,
      "Ouch": 5135,
      "fy": 5136,
      "Ġpist": 5137,
      "anna": 5138,
      "Ġbites": 5139,
      "Ġdeeper": 5140,
      "Ġordered": 5141,
      "Ġpistol": 5142,
      "act": 5143,
      "Ġbang": 5144,
      "Ġdigg": 5145,
      "Ġsty": 5146,
      "Ġfasc": 5147,
      "Ġcopper": 5148,
      "Ġcomfy": 5149,
      "Ġparts": 5150,
      "Ġmatches": 5151,
      "Ġpatterns": 5152,
      "Ġrecognized": 5153,
      "Ġrefreshed": 5154,
      "Ġemer": 5155,
      "Ġremained": 5156,
      "Ġworks": 5157,
      "Ġinvite": 5158,
      "ĠCoco": 5159,
      "Ġdigging": 5160,
      "Ġsip": 5161,
      "ities": 5162,
      "Ġrow": 5163,
      "Ġupstairs": 5164,
      "Ġjail": 5165,
      "Ġchir": 5166,
      "ases": 5167,
      "Ġblood": 5168,
      "Johnny": 5169,
      "Ġdrinking": 5170,
      "Ġwarn": 5171,
      "Ġsupposed": 5172,
      "Ġhate": 5173,
      "ĠJul": 5174,
      "Ġracing": 5175,
      "Ġmustache": 5176,
      "Ġdiscovery": 5177,
      "ÅĵThatÃ¢": 5178,
      "ĠPeople": 5179,
      "Ġdiscuss": 5180,
      "Ġgrinned": 5181,
      "Ġchirped": 5182,
      "All": 5183,
      "cc": 5184,
      "sity": 5185,
      "ari": 5186,
      "Ġrush": 5187,
      "Ġwherever": 5188,
      "Ġours": 5189,
      "Ġbookshe": 5190,
      "Ġcircus": 5191,
      "Ġurge": 5192,
      "Ġmeasured": 5193,
      "Ġsimple": 5194,
      "Ġfascin": 5195,
      "\",": 5196,
      "utty": 5197,
      "ĠMay": 5198,
      "Ġgirls": 5199,
      "Ġspill": 5200,
      "ĠLater": 5201,
      "Ġdecision": 5202,
      "Ġsunlight": 5203,
      "Ġmass": 5204,
      "Ġplanted": 5205,
      "Ġgrape": 5206,
      "Ġlicense": 5207,
      "bers": 5208,
      "eed": 5209,
      "lvet": 5210,
      "riger": 5211,
      "Ġeff": 5212,
      "Ġbeg": 5213,
      "aper": 5214,
      "Ġjogged": 5215,
      "Ġreplace": 5216,
      "Ġcrashed": 5217,
      "Ġvelvet": 5218,
      "Ġpigs": 5219,
      "Ġapologize": 5220,
      "Ġrefriger": 5221,
      "Ġbuzzing": 5222,
      "Ġsuffer": 5223,
      "Ġearthquake": 5224,
      "Ġrefrigerator": 5225,
      "Mmm": 5226,
      "Ġbak": 5227,
      "Ġobey": 5228,
      "allen": 5229,
      "ĠEveryday": 5230,
      "Ġglowed": 5231,
      "ĠPenny": 5232,
      "Ġwrites": 5233,
      "Ġactually": 5234,
      "Ġclearing": 5235,
      "oved": 5236,
      "Ġheat": 5237,
      "!\",": 5238,
      "Ġnewsp": 5239,
      "Ġraised": 5240,
      "ÅĵNo": 5241,
      "Ġbringing": 5242,
      "Ġeasier": 5243,
      "Ġselling": 5244,
      "Ġuniversity": 5245,
      "Ġweapon": 5246,
      "Ġdifference": 5247,
      "Sh": 5248,
      "tory": 5249,
      "ĠV": 5250,
      "Ġbill": 5251,
      "Ġhistory": 5252,
      "Ġchallen": 5253,
      "ĠJoy": 5254,
      "Ġrested": 5255,
      "Ġmarching": 5256,
      "Ġbathrobe": 5257,
      "Ġinvit": 5258,
      "Ġawe": 5259,
      "Ġsettle": 5260,
      "Ġcartoons": 5261,
      "Ġbookshelf": 5262,
      "Ġtoe": 5263,
      "oming": 5264,
      "Ġgain": 5265,
      "htray": 5266,
      "Ġashtray": 5267,
      "Ġworse": 5268,
      "Ġlaid": 5269,
      "Ġlets": 5270,
      "Ġturning": 5271,
      "Ġcontinue": 5272,
      "Ġsparkles": 5273,
      "Ġlands": 5274,
      "Before": 5275,
      "Ġdecorations": 5276,
      "Ġprepared": 5277,
      "kins": 5278,
      "Ġbes": 5279,
      "Ġfed": 5280,
      "enty": 5281,
      "Ġwhip": 5282,
      "Ġscur": 5283,
      "Ġflood": 5284,
      "ĠFo": 5285,
      "Ġstrang": 5286,
      "Ġremem": 5287,
      "ĠNot": 5288,
      "Ġcompany": 5289,
      "Ġspoons": 5290,
      "Ġfirefight": 5291,
      "ĠRemy": 5292,
      "Ġdare": 5293,
      "Ġslip": 5294,
      "Ġwatered": 5295,
      "TMll": 5296,
      "Ġhated": 5297,
      "Ġagreement": 5298,
      "Ġbrick": 5299,
      "Ġmenu": 5300,
      "Ġremembers": 5301,
      "ging": 5302,
      "Ġtremb": 5303,
      "bbled": 5304,
      "Ġproblems": 5305,
      "ude": 5306,
      "Ġsoared": 5307,
      "ĠMilly": 5308,
      "Ġfash": 5309,
      "Ġpossible": 5310,
      "izard": 5311,
      "Ġfamil": 5312,
      "Ġchewed": 5313,
      "irpy": 5314,
      "Ġadmiring": 5315,
      "Ġcrunchy": 5316,
      "Ġmitten": 5317,
      "Ġwanting": 5318,
      "Ġbrus": 5319,
      "Ġattached": 5320,
      "Ġexamined": 5321,
      "Ġtomatoes": 5322,
      "Ġdisagre": 5323,
      "Jake": 5324,
      "Would": 5325,
      "fied": 5326,
      "walk": 5327,
      "Ġweren": 5328,
      "indy": 5329,
      "Ġmonsters": 5330,
      "looking": 5331,
      "Ġsprinkles": 5332,
      "Ġbeside": 5333,
      "Moral": 5334,
      "Ġtip": 5335,
      "ĠLiz": 5336,
      "Ġslice": 5337,
      "Ġfixing": 5338,
      "Ġpracticing": 5339,
      "Ġvillag": 5340,
      "ÅĵIÃ¢": 5341,
      "Ġneighborhood": 5342,
      "Ġpupil": 5343,
      "Ġcurled": 5344,
      "Ġstrangers": 5345,
      "ha": 5346,
      "atch": 5347,
      "Ġrust": 5348,
      "Ġflap": 5349,
      "Ġoper": 5350,
      "Ġgrey": 5351,
      "Ġbrain": 5352,
      "Ġcub": 5353,
      "Ġtrapped": 5354,
      "Ġtracks": 5355,
      "ĠKatie": 5356,
      "Ġmouths": 5357,
      "Really": 5358,
      "Ġgrocery": 5359,
      "Ġsurrounded": 5360,
      "Ġeffort": 5361,
      "Ġnewspaper": 5362,
      "Ex": 5363,
      "cles": 5364,
      "hest": 5365,
      "Ġcal": 5366,
      "Ġonwards": 5367,
      "Ġweight": 5368,
      "ĠDan": 5369,
      "Ġpeel": 5370,
      "Ġwond": 5371,
      "Ġcontain": 5372,
      "Ġcutting": 5373,
      "Ġgloves": 5374,
      "Ro": 5375,
      "Ġwre": 5376,
      "Ġbun": 5377,
      "Ġhanger": 5378,
      "ĠLuna": 5379,
      "Ġflav": 5380,
      "Ġfreeze": 5381,
      "ĠChloe": 5382,
      "Emily": 5383,
      "nie": 5384,
      "xy": 5385,
      "Ġwaist": 5386,
      "Ġduring": 5387,
      "ays": 5388,
      "ora": 5389,
      "Ġspaces": 5390,
      "omething": 5391,
      "Ġperched": 5392,
      "Ġcomple": 5393,
      "Ġsidewalk": 5394,
      "Ġcollection": 5395,
      "Ġsafari": 5396,
      "Ġseats": 5397,
      "Ġguns": 5398,
      "Ġpinched": 5399,
      "Ġescaped": 5400,
      "Ġrides": 5401,
      "Ġmodel": 5402,
      "Ġsubway": 5403,
      "Ġvillagers": 5404,
      "Ġrhy": 5405,
      "asp": 5406,
      "Ġdownstairs": 5407,
      "Ġrained": 5408,
      "Ġtalent": 5409,
      "ĠNutty": 5410,
      "Ġbowed": 5411,
      "Ġbuildings": 5412,
      "Ġpaints": 5413,
      "Ġreminder": 5414,
      "Ġwisdom": 5415,
      "Ġargued": 5416,
      "ĠBubbles": 5417,
      "Ġcostumes": 5418,
      "Ġsausage": 5419,
      "Not": 5420,
      "ĠSund": 5421,
      "aded": 5422,
      "Ġwaits": 5423,
      "Ġdrinks": 5424,
      "Ġwhistled": 5425,
      "Ġintroduc": 5426,
      "Ġfashion": 5427,
      "uing": 5428,
      "Ġwizard": 5429,
      "Ġmister": 5430,
      "ĠBeth": 5431,
      "Ġmudd": 5432,
      "Ġgotten": 5433,
      "Ġzipped": 5434,
      "Ġfiremen": 5435,
      "Ġvisiting": 5436,
      "ĠFloppy": 5437,
      "Ġaccidents": 5438,
      "Ġsliding": 5439,
      "Ġtwigs": 5440,
      "Ġmemory": 5441,
      "Ġpermit": 5442,
      "Fluffy": 5443,
      "Le": 5444,
      "do": 5445,
      "dam": 5446,
      "neath": 5447,
      "Ġx": 5448,
      "Ġsix": 5449,
      "Ġwid": 5450,
      "Ġpitch": 5451,
      "ĠHoppy": 5452,
      "adly": 5453,
      "ĠMaggie": 5454,
      "ĠFro": 5455,
      "Ġpeered": 5456,
      "ĠCat": 5457,
      "thm": 5458,
      "Ġzero": 5459,
      "Ġsteel": 5460,
      "Ġpetted": 5461,
      "Ġpancakes": 5462,
      "Ġprice": 5463,
      "Ġdinosaurs": 5464,
      "Ġmineral": 5465,
      "Ġbleeding": 5466,
      "Ġmuddy": 5467,
      "Ha": 5468,
      "Ġbones": 5469,
      "Ġweighed": 5470,
      "Ġpears": 5471,
      "Ġanytime": 5472,
      "Ġeagle": 5473,
      "Ġmountains": 5474,
      "Ġmeasuring": 5475,
      "Ġbunnies": 5476,
      "Ok": 5477,
      "Sometimes": 5478,
      "Yum": 5479,
      "ided": 5480,
      "Ġsting": 5481,
      "isten": 5482,
      "Ġpearl": 5483,
      "ÅĵThank": 5484,
      "Ġneighbors": 5485,
      "Ġfolded": 5486,
      "ĠChr": 5487,
      "Ġhurric": 5488,
      "reen": 5489,
      "Ġlamb": 5490,
      "Ġnavy": 5491,
      "Ġarea": 5492,
      "Ġbrid": 5493,
      "Ġbrushed": 5494,
      "Ġchef": 5495,
      "Ġvoices": 5496,
      "Ġshopping": 5497,
      "avi": 5498,
      "ĠOl": 5499,
      "Ġscratched": 5500,
      "Ġgrandmother": 5501,
      "Ġencourage": 5502,
      "Ġpadd": 5503,
      "Ġprune": 5504,
      "Ġbrings": 5505,
      "Ġmeow": 5506,
      "Ġdecides": 5507,
      "Ġbeds": 5508,
      "Ġswims": 5509,
      "Ġpets": 5510,
      "Ġbottles": 5511,
      "ĠSomeone": 5512,
      "Ġpillows": 5513,
      "Ġguessed": 5514,
      "Ġpedal": 5515,
      "Ġmassage": 5516,
      "Ġwonders": 5517,
      "!'": 5518,
      "ĠOnce": 5519,
      "Ġlung": 5520,
      "Ġripped": 5521,
      "riage": 5522,
      "Ġleather": 5523,
      "Ġsnowball": 5524,
      "Ġsecrets": 5525,
      "Ġcomforted": 5526,
      "Ġinvitation": 5527,
      "Ġhurricane": 5528,
      "cage": 5529,
      "mare": 5530,
      "son": 5531,
      "ides": 5532,
      "amie": 5533,
      "Ġhappiest": 5534,
      "ĠMat": 5535,
      "terday": 5536,
      "ica": 5537,
      "Ġbirdcage": 5538,
      "Ġrang": 5539,
      "Ġoverjoy": 5540,
      "ĠPoppy": 5541,
      "ĠLetÃ¢": 5542,
      "Ġcatching": 5543,
      "ĠChirpy": 5544,
      "ĠAnne": 5545,
      "Ġcuddle": 5546,
      "Ġornament": 5547,
      "ĠSuzy": 5548,
      "Ġfascinated": 5549,
      "Ġdisagreed": 5550,
      "Ġoverjoyed": 5551,
      "cious": 5552,
      "Ġscoop": 5553,
      "ĠLucky": 5554,
      "Ġstruck": 5555,
      "Ġglitter": 5556,
      "Ġunderground": 5557,
      "Ġstole": 5558,
      "Ġmarkers": 5559,
      "Ġzooming": 5560,
      "Ġwaffles": 5561,
      "Ready": 5562,
      "Ġinstruct": 5563,
      "Ġstyle": 5564,
      "Ġoperation": 5565,
      "xygen": 5566,
      "Ġrhythm": 5567,
      "Or": 5568,
      "ĠThese": 5569,
      "igz": 5570,
      "Ġpretti": 5571,
      "Ġsnail": 5572,
      "Ġkindly": 5573,
      "Ġpupp": 5574,
      "Ġbrand": 5575,
      "Ġnightmare": 5576,
      "Ġactiv": 5577,
      "ĠHowever": 5578,
      "Ġsneezed": 5579,
      "Ġrecognize": 5580,
      "Ġbridges": 5581,
      "Ġprettiest": 5582,
      "First": 5583,
      "Ġrele": 5584,
      "Ġexact": 5585,
      "Ġeveryday": 5586,
      "Ġblouse": 5587,
      "Ġvowed": 5588,
      "Ġteasp": 5589,
      "Ġrail": 5590,
      "Ġcones": 5591,
      "Ġtastes": 5592,
      "Ġdrift": 5593,
      "Ġsatis": 5594,
      "Ġwooden": 5595,
      "Ġdoctors": 5596,
      "laire": 5597,
      "Ġhurried": 5598,
      "Ġsucceeded": 5599,
      "Ġdisturbed": 5600,
      "Ġtravell": 5601,
      "ĠBetsy": 5602,
      "Ġteaspoon": 5603,
      "Susie": 5604,
      "mble": 5605,
      "oed": 5606,
      "Ġtugged": 5607,
      "Ġbare": 5608,
      "ĠMe": 5609,
      "Ġcontro": 5610,
      "Ġpiles": 5611,
      "Ġstudied": 5612,
      "Ġbillboard": 5613,
      "ĠSunday": 5614,
      "gers": 5615,
      "Ġoxygen": 5616,
      "etch": 5617,
      "Ġstruggled": 5618,
      "Ġimage": 5619,
      "Ġbye": 5620,
      "aster": 5621,
      "ÅĵLook": 5622,
      "Ġkeeps": 5623,
      "Ġcrept": 5624,
      "Ġtune": 5625,
      "Ġacorns": 5626,
      "Ġmuffins": 5627,
      "Ġlips": 5628,
      "ĠSharing": 5629,
      "Ġitems": 5630,
      "rin": 5631,
      "uke": 5632,
      "Ġlines": 5633,
      "Ġcaut": 5634,
      "ĠSomething": 5635,
      "Ġtremble": 5636,
      "anta": 5637,
      "Ġunderneath": 5638,
      "ÅĵDon": 5639,
      "Ġladyb": 5640,
      "Ġperfor": 5641,
      "Ġplanned": 5642,
      "Ġserved": 5643,
      "Ġbloomed": 5644,
      "Ġincluded": 5645,
      "Ġspaceship": 5646,
      "Happy": 5647,
      "len": 5648,
      "uzz": 5649,
      "imy": 5650,
      "Ġloving": 5651,
      "Ġofficer": 5652,
      "avid": 5653,
      "Ġsuitc": 5654,
      "Ġparked": 5655,
      "Ġscreams": 5656,
      "Ġtickets": 5657,
      "Ġsoaring": 5658,
      "Ġmentioned": 5659,
      "Ġresponsible": 5660,
      "Ġbegin": 5661,
      "ding": 5662,
      "Ġwagging": 5663,
      "Ġbeat": 5664,
      "Ġbeard": 5665,
      "ĠItÃ¢": 5666,
      "Ġsorting": 5667,
      "ÅĵWe": 5668,
      "Ġkeeper": 5669,
      "Ġcreation": 5670,
      "ffic": 5671,
      "Ġtraffic": 5672,
      "Ġlandsc": 5673,
      "Ġneighbourhood": 5674,
      "Ġcompleted": 5675,
      "Luckily": 5676,
      "Ġtonight": 5677,
      "ĠTiny": 5678,
      "Ġeight": 5679,
      "Ġeats": 5680,
      "Ġhonk": 5681,
      "Ġsights": 5682,
      "Ġshivered": 5683,
      "Ġpotatoes": 5684,
      "Ġolives": 5685,
      "Dave": 5686,
      "Rex": 5687,
      "Remember": 5688,
      "Ġdied": 5689,
      "Ġgained": 5690,
      "Ġbend": 5691,
      "Ġcuriosity": 5692,
      "Ġemergen": 5693,
      "Ġscurried": 5694,
      "Ġintroduced": 5695,
      "Ġinstructions": 5696,
      "Ġvent": 5697,
      "Ġprecious": 5698,
      "izing": 5699,
      "Ġpaintings": 5700,
      "Andy": 5701,
      "Ġdecorated": 5702,
      "Ġuniverse": 5703,
      ".'": 5704,
      "George": 5705,
      "Ġnicer": 5706,
      "Ġago": 5707,
      "Ġwhatever": 5708,
      "Ġrealize": 5709,
      "Ġsteep": 5710,
      "ĠJenna": 5711,
      "Ġaccom": 5712,
      "Ġmachines": 5713,
      "Ġmovies": 5714,
      "Ġcompetition": 5715,
      "Ġshadows": 5716,
      "Ġprunes": 5717,
      "Ġexactly": 5718,
      "Ġsi": 5719,
      "Ġann": 5720,
      "Ġrocked": 5721,
      "Ġdraws": 5722,
      "Ġguest": 5723,
      "Ġprotected": 5724,
      "Ġsolut": 5725,
      "uctantly": 5726,
      "igzag": 5727,
      "Ġlandscape": 5728,
      "ux": 5729,
      "zen": 5730,
      "Ġsadness": 5731,
      "Ġslapped": 5732,
      "Ġowned": 5733,
      "ĠRa": 5734,
      "Ġbeha": 5735,
      "Ġprinter": 5736,
      "Ġfrosting": 5737,
      "Ġbeneath": 5738,
      "Ġpowers": 5739,
      "Ġintroduce": 5740,
      "lowly": 5741,
      "Ġproperly": 5742,
      "Ġwreck": 5743,
      "uxu": 5744,
      "Mar": 5745,
      "bies": 5746,
      "Ġbank": 5747,
      "ĠSunny": 5748,
      "Ġinch": 5749,
      "bert": 5750,
      "ĠJosh": 5751,
      "Ġshoulders": 5752,
      "Ġyelling": 5753,
      "Ġcontest": 5754,
      "Ġpouring": 5755,
      "Ġlemons": 5756,
      "Ġlibrarian": 5757,
      "Ġstealing": 5758,
      "âĤ¬âĢĿ": 5759,
      "Ġrubbing": 5760,
      "Ġpenguins": 5761,
      "Ġreleased": 5762,
      "Ye": 5763,
      "ales": 5764,
      "Ġluxu": 5765,
      "ĠTw": 5766,
      "Ġweb": 5767,
      "Ġknelt": 5768,
      "ĠRob": 5769,
      "Ġruin": 5770,
      "Ġbabies": 5771,
      "Ġsisters": 5772,
      "iggy": 5773,
      "Ġmixing": 5774,
      "Ġkeys": 5775,
      "ĠOllie": 5776,
      "Ġgathering": 5777,
      "Ġtwirling": 5778,
      "Ġsilence": 5779,
      "Ġurged": 5780,
      "fit": 5781,
      "hins": 5782,
      "rr": 5783,
      "ashed": 5784,
      "Ġstruggle": 5785,
      "Ġpurred": 5786,
      "Ġcontrol": 5787,
      "omas": 5788,
      "Ġtheirs": 5789,
      "Ġsorted": 5790,
      "Ġforgi": 5791,
      "Joey": 5792,
      "Ġfrozen": 5793,
      "Ġreluctantly": 5794,
      "Ġunlocked": 5795,
      "Ġcrackers": 5796,
      "Ġfireworks": 5797,
      "Ġbarely": 5798,
      "Ġaccompl": 5799,
      "mel": 5800,
      "Ġsides": 5801,
      "Ġmice": 5802,
      "ishes": 5803,
      "Ġsoak": 5804,
      "ĠBir": 5805,
      "Ġshock": 5806,
      "Ġoutdo": 5807,
      "Ġexit": 5808,
      "Ġbudge": 5809,
      "ĠCar": 5810,
      "Ġdragged": 5811,
      "Ġcrumb": 5812,
      "Ġmuscles": 5813,
      "Ġspiders": 5814,
      "Ġpunished": 5815,
      "Ġstripes": 5816,
      "Ġchallenge": 5817,
      "Teddy": 5818,
      "iar": 5819,
      "Ġdam": 5820,
      "Ġloose": 5821,
      "Ġoutfit": 5822,
      "ĠAn": 5823,
      "ÅĵCan": 5824,
      "Ġpastels": 5825,
      "Ġbouncy": 5826,
      "Ġdolphins": 5827,
      "ĠFrank": 5828,
      "Ġrepeated": 5829,
      "Ġachieve": 5830,
      "zing": 5831,
      "Ġ1": 5832,
      "ĠHop": 5833,
      "ppers": 5834,
      "Ġranger": 5835,
      "agull": 5836,
      "ĠFirst": 5837,
      "Ġopin": 5838,
      "thank": 5839,
      "though": 5840,
      "Ġwaiter": 5841,
      "Ġbreaking": 5842,
      "Ġprinted": 5843,
      "Ġwinning": 5844,
      "Ġpockets": 5845,
      "Ġexpect": 5846,
      "Ġexpected": 5847,
      "Ġroads": 5848,
      "Ġroaring": 5849,
      "Ġfigured": 5850,
      "ĠZoe": 5851,
      "Ġemergency": 5852,
      "rance": 5853,
      "Ġthro": 5854,
      "Ġlied": 5855,
      "Ġchases": 5856,
      "Ġbecoming": 5857,
      "bbing": 5858,
      "Ġbuckets": 5859,
      "Ġmission": 5860,
      "ĠStop": 5861,
      "Ġpoliceman": 5862,
      "uesday": 5863,
      "Ġbrushes": 5864,
      "Ġthroat": 5865,
      "ien": 5866,
      "shing": 5867,
      "edding": 5868,
      "ĠTuesday": 5869,
      "ĠBig": 5870,
      "Ġseagull": 5871,
      "Ġclick": 5872,
      "ĠDid": 5873,
      "Ġpeaches": 5874,
      "Ġslimy": 5875,
      "ĠletÃ¢": 5876,
      "Ġwondering": 5877,
      "Ġplanets": 5878,
      "Ġentire": 5879,
      "Ġstirring": 5880,
      "Ġscreaming": 5881,
      "Ġclaps": 5882,
      "Ġdiscovering": 5883,
      "Ġcamping": 5884,
      "Ġcrowd": 5885,
      "ĠUncle": 5886,
      "Kitty": 5887,
      "pected": 5888,
      "Ġwest": 5889,
      "Ġtour": 5890,
      "Ġpies": 5891,
      "ĠLike": 5892,
      "Ġsnugg": 5893,
      "Ġsitu": 5894,
      "Ġstaring": 5895,
      "Ġstretching": 5896,
      "Ġsneaked": 5897,
      "Ġapplauded": 5898,
      "Ġincrease": 5899,
      "Ġguys": 5900,
      "ÅĵDonÃ¢": 5901,
      "Bella": 5902,
      "Un": 5903,
      "ĠJan": 5904,
      "Ġhomework": 5905,
      "Ġhowever": 5906,
      "ĠCindy": 5907,
      "Ġunex": 5908,
      "Ġseesaw": 5909,
      "Ġacted": 5910,
      "Ġspraying": 5911,
      "Ġcountryside": 5912,
      "Ġbalancing": 5913,
      "Ġsiren": 5914,
      "Ġunexpected": 5915,
      "die": 5916,
      "zie": 5917,
      "Ġboo": 5918,
      "Ġfart": 5919,
      "itely": 5920,
      "Ġda": 5921,
      "lee": 5922,
      "Ġworries": 5923,
      "Ġgoodnight": 5924,
      "Ġtouching": 5925,
      "Ġhighest": 5926,
      "Ġgiggling": 5927,
      "Goodbye": 5928,
      "ĠAlways": 5929,
      "Ġconfident": 5930,
      "Ġtrembling": 5931,
      "Ġcautious": 5932,
      "Ġsuitcase": 5933,
      "Ġoutdoors": 5934,
      "James": 5935,
      "Mr": 5936,
      "Pete": 5937,
      "bric": 5938,
      "jam": 5939,
      "ern": 5940,
      "Ġheel": 5941,
      "Ġmittens": 5942,
      "ĠSanta": 5943,
      "Ġallow": 5944,
      "Ġfabric": 5945,
      "Ġteasing": 5946,
      "Ġbroom": 5947,
      "Ġourselves": 5948,
      "ults": 5949,
      "Ġmarriage": 5950,
      "Ġpassing": 5951,
      "Ġscru": 5952,
      "Ġleader": 5953,
      "ĠUnfortunately": 5954,
      "Ġdemanded": 5955,
      "Ġsighs": 5956,
      "Ġladybug": 5957,
      "jamas": 5958,
      "hell": 5959,
      "Ġcape": 5960,
      "ĠTilly": 5961,
      "Ġplenty": 5962,
      "Ġscra": 5963,
      "Ġmatching": 5964,
      "Ġrainbows": 5965,
      "Ġentrance": 5966,
      "Ġsupplies": 5967,
      "Ġshivering": 5968,
      "Ġnails": 5969,
      "Ġdirection": 5970,
      "annah": 5971,
      "Ġluxury": 5972,
      "Ella": 5973,
      "Henry": 5974,
      "Mike": 5975,
      "Mittens": 5976,
      "vers": 5977,
      "Ġripe": 5978,
      "Ġstare": 5979,
      "Ġrelease": 5980,
      "inda": 5981,
      "Ġflat": 5982,
      "Ġvict": 5983,
      "ĠDavid": 5984,
      "Ġgrant": 5985,
      "ĠGr": 5986,
      "Ġsweets": 5987,
      "Ġbaked": 5988,
      "ulu": 5989,
      "Ġreaching": 5990,
      "Ġwinner": 5991,
      "Ġcompletely": 5992,
      "ĠJulie": 5993,
      "Ġsatisfied": 5994,
      "Ġsolution": 5995,
      "dies": 5996,
      "Ġmater": 5997,
      "essie": 5998,
      "aky": 5999,
      "Ġgreet": 6000,
      "Ġtexture": 6001,
      "Ġrestored": 6002,
      "Ġcuts": 6003,
      "...": 6004,
      "Ġtwinkling": 6005,
      "Ġmateri": 6006,
      "Ah": 6007,
      "Lola": 6008,
      "nes": 6009,
      "Ġti": 6010,
      "Ġwedding": 6011,
      "Ġheav": 6012,
      "ĠBy": 6013,
      "ĠLizzy": 6014,
      "ason": 6015,
      "Ġpoking": 6016,
      "ĠPip": 6017,
      "aced": 6018,
      "Ġsweeties": 6019,
      "Ġproject": 6020,
      "Ġcurly": 6021,
      "Ġsurface": 6022,
      "Ġcurtains": 6023,
      "Ġseason": 6024,
      "ĠJessie": 6025,
      "Ġbalanced": 6026,
      "Ġresult": 6027,
      "ody": 6028,
      "vin": 6029,
      "ĠYes": 6030,
      "Ġbunch": 6031,
      "Ġfara": 6032,
      "Ġge": 6033,
      "Ġeast": 6034,
      "ĠJon": 6035,
      "aren": 6036,
      "Ġsnakes": 6037,
      "ÅĵHello": 6038,
      "Ġwritten": 6039,
      "Ġpajamas": 6040,
      "Ġsinger": 6041,
      "ĠDolly": 6042,
      "Ġrolls": 6043,
      "Ġpastries": 6044,
      "Ġinterest": 6045,
      "Ġrescued": 6046,
      "Ġloaded": 6047,
      "cuse": 6048,
      "lowers": 6049,
      "Ġquacked": 6050,
      "Ġfaraway": 6051,
      "uly": 6052,
      "Ġwound": 6053,
      "ednes": 6054,
      "ĠSlowly": 6055,
      "ĠMad": 6056,
      "ĠJe": 6057,
      "Ġcomm": 6058,
      "Ġforehead": 6059,
      "Ġunited": 6060,
      "acob": 6061,
      "Ġzigzag": 6062,
      "Ġpolishing": 6063,
      "Ġmarker": 6064,
      "ĠOut": 6065,
      "Ġprayer": 6066,
      "Ġhorns": 6067,
      "Ġmelting": 6068,
      "Ġrecorded": 6069,
      "Ġstudying": 6070,
      "Ġtasks": 6071,
      "Ġpaddle": 6072,
      "Ġinclude": 6073,
      "Ġburrow": 6074,
      "Ġdisagree": 6075,
      "Ġkneeled": 6076,
      "Leo": 6077,
      "ednesday": 6078,
      "Paul": 6079,
      "ĠQu": 6080,
      "Ġboom": 6081,
      "ĠWednesday": 6082,
      "Ġflames": 6083,
      "Ġstrings": 6084,
      "ÅĵThis": 6085,
      "Ġcreating": 6086,
      "Ġmatched": 6087,
      "Ġdeser": 6088,
      "Ġtrips": 6089,
      "Ġcrabs": 6090,
      "Ġmagnets": 6091,
      "Ġshelves": 6092,
      "Excuse": 6093,
      "eep": 6094,
      "ĠÌ": 6095,
      "ĠSure": 6096,
      "Ġstair": 6097,
      "icorn": 6098,
      "Ġcatches": 6099,
      "Ġslap": 6100,
      "Ġbravery": 6101,
      "Ġunicorn": 6102,
      "Ġtowels": 6103,
      "Ġkicking": 6104,
      "Ġcheering": 6105,
      "ophia": 6106,
      "Ġvanish": 6107,
      "Ġdusty": 6108,
      "Ġphotos": 6109,
      "Bun": 6110,
      "pe": 6111,
      "Ġwink": 6112,
      "Ġdent": 6113,
      "ena": 6114,
      "igi": 6115,
      "une": 6116,
      "Ġstartled": 6117,
      "Ġchat": 6118,
      "Ġblink": 6119,
      "Ġpebbles": 6120,
      "ledge": 6121,
      "Ġbedtime": 6122,
      "Ġreplaced": 6123,
      "Ġsingle": 6124,
      "Ġdragons": 6125,
      "Ġmotion": 6126,
      "However": 6127,
      "Ġpencils": 6128,
      "Ġbumps": 6129,
      "Ġstamps": 6130,
      "Ġweeping": 6131,
      "Ġitchy": 6132,
      "Ġornaments": 6133,
      "Ġgazed": 6134,
      "Ġventured": 6135,
      "ĠÌĥ": 6136,
      "Fred": 6137,
      "go": 6138,
      "hee": 6139,
      "Ġsway": 6140,
      "Ġfetch": 6141,
      "irm": 6142,
      "ĠBird": 6143,
      "ĠBye": 6144,
      "ĠAdam": 6145,
      "Ġhugging": 6146,
      "Ġknowledge": 6147,
      "Ġtruly": 6148,
      "Ġworker": 6149,
      "Ġcracked": 6150,
      "Ġbuying": 6151,
      "Ġhealed": 6152,
      "Ġmisses": 6153,
      "Ġarguing": 6154,
      "Annie": 6155,
      "Ġregretted": 6156,
      "Alex": 6157,
      "cers": 6158,
      "reat": 6159,
      "ayla": 6160,
      "ĠFor": 6161,
      "ĠClaire": 6162,
      "Ġremoved": 6163,
      "ÅĵMommy": 6164,
      "Ġwrist": 6165,
      "Ġfoods": 6166,
      "Ġtractor": 6167,
      "Ġrainco": 6168,
      "Ġsticking": 6169,
      "Ġusually": 6170,
      "Ġprints": 6171,
      "Ġdrives": 6172,
      "ĠwasnÃ¢": 6173,
      "Ġpolished": 6174,
      "angled": 6175,
      "Ġpatience": 6176,
      "Ġrelief": 6177,
      "Ġrockets": 6178,
      "Ġtickle": 6179,
      "Ġcovers": 6180,
      "Ġsandcastles": 6181,
      "Ġactivities": 6182,
      "Ġfarther": 6183,
      "Ġraincoat": 6184,
      "Fr": 6185,
      "Mrs": 6186,
      "boo": 6187,
      "cope": 6188,
      "iles": 6189,
      "Ġrumble": 6190,
      "Ġstern": 6191,
      "Ġshined": 6192,
      "Ġcans": 6193,
      "ĠJamie": 6194,
      "Ġroots": 6195,
      "ĠPipp": 6196,
      "Ġexplorers": 6197,
      "Ġstolen": 6198,
      "Ġusual": 6199,
      "ĠNick": 6200,
      "Ġopening": 6201,
      "Afterwards": 6202,
      "Ġgrowling": 6203,
      "hog": 6204,
      "Ġchewing": 6205,
      "Ġflags": 6206,
      "Ġpeeking": 6207,
      "Grandpa": 6208,
      "Ġstrike": 6209,
      "Ġobserved": 6210,
      "ĠChrist": 6211,
      "ĠRabbit": 6212,
      "melia": 6213,
      "lings": 6214,
      "you": 6215,
      "int": 6216,
      "Ġcent": 6217,
      "Ġpout": 6218,
      "ĠSadly": 6219,
      "ords": 6220,
      "ĠLarry": 6221,
      "usted": 6222,
      "ÅĵOh": 6223,
      "Ġsmiley": 6224,
      "Ġuses": 6225,
      "Ġyells": 6226,
      "Ġpartic": 6227,
      "Ġthreat": 6228,
      "Ġcoloured": 6229,
      "Ġglasses": 6230,
      "Ġtraveled": 6231,
      "Yeah": 6232,
      "Millie": 6233,
      "Sandy": 6234,
      "Ġbumpy": 6235,
      "Ġrisk": 6236,
      "Ġyouth": 6237,
      "Ġspike": 6238,
      "opes": 6239,
      "Ġfault": 6240,
      "Ġchips": 6241,
      "Ġfoc": 6242,
      "Ġsnat": 6243,
      "Ġrocking": 6244,
      "Ġruler": 6245,
      "Ġgrowl": 6246,
      "Ġcelebration": 6247,
      "Ġherbs": 6248,
      "abel": 6249,
      "Ġfirefighters": 6250,
      "ĠMatt": 6251,
      "mas": 6252,
      "per": 6253,
      "rious": 6254,
      "indr": 6255,
      "Ġchuck": 6256,
      "asm": 6257,
      "ĠCarl": 6258,
      "Ġraindr": 6259,
      "ÅĵWhy": 6260,
      "Ġstaying": 6261,
      "oys": 6262,
      "Ġowners": 6263,
      "Ġteaches": 6264,
      "Ġdesert": 6265,
      "Ġvalued": 6266,
      "Ġtickled": 6267,
      "Ġsilent": 6268,
      "Ġfreed": 6269,
      "Ġseems": 6270,
      "Ġsquares": 6271,
      "Ġrubs": 6272,
      "Ġhedgehog": 6273,
      "Ġimproved": 6274,
      "ĠRover": 6275,
      "Ġseashell": 6276,
      "Ġsquealed": 6277,
      "Ġcrumbs": 6278,
      "Ġvictory": 6279,
      "jo": 6280,
      "Ġdipped": 6281,
      "oni": 6282,
      "Ġsobbed": 6283,
      "ĠChe": 6284,
      "ĠPl": 6285,
      "ĠPinky": 6286,
      "Ġlistens": 6287,
      "ĠThomas": 6288,
      "Ġrule": 6289,
      "Ġyesterday": 6290,
      "Ġcreamy": 6291,
      "Ġpatted": 6292,
      "Ġfuzzy": 6293,
      "Ġtemper": 6294,
      "Ġparticular": 6295,
      "Sophie": 6296,
      "Ġtodd": 6297,
      "Ġfirm": 6298,
      "Ġden": 6299,
      "aty": 6300,
      "Ġbead": 6301,
      "Ġexha": 6302,
      "ĠWater": 6303,
      "Ġlap": 6304,
      "ĠLuckily": 6305,
      "ĠLinda": 6306,
      "ĠLulu": 6307,
      "bbly": 6308,
      "Ġpeppers": 6309,
      "Ġcoloring": 6310,
      "ĠGreen": 6311,
      "Ġcaused": 6312,
      "ĠLeave": 6313,
      "Ġadding": 6314,
      "Ġwandering": 6315,
      "Ġwiggled": 6316,
      "Ġfamilies": 6317,
      "ĠChristmas": 6318,
      "Bobby": 6319,
      "Cl": 6320,
      "Polly": 6321,
      "oh": 6322,
      "hello": 6323,
      "Ġcash": 6324,
      "iding": 6325,
      "ences": 6326,
      "ĠĊĠ": 6327,
      "opsy": 6328,
      "ĠGigi": 6329,
      "Ġworkers": 6330,
      "ĠEmmy": 6331,
      "Ġwinked": 6332,
      "Ġsafer": 6333,
      "Ġreveal": 6334,
      "Ġtwinkle": 6335,
      "Ġgaze": 6336,
      "Ġopinion": 6337,
      "Ġsituation": 6338,
      "Ġraindrops": 6339,
      "pite": 6340,
      "Ġast": 6341,
      "Ġcous": 6342,
      "Ġdared": 6343,
      "Ġpause": 6344,
      "isies": 6345,
      "esome": 6346,
      "Ġech": 6347,
      "ĠBoth": 6348,
      "Ġnect": 6349,
      "ĠMany": 6350,
      "ĠcanÃ¢": 6351,
      "Ġfaced": 6352,
      "Ġchoo": 6353,
      "Ġneedles": 6354,
      "itches": 6355,
      "Ġresting": 6356,
      "Ġarrive": 6357,
      "Ġagrees": 6358,
      "Ġpacking": 6359,
      "Ġactions": 6360,
      "ĠOwl": 6361,
      "Bobo": 6362,
      "Grace": 6363,
      "Ġunpacked": 6364,
      "ĠJessica": 6365,
      "Ġdaisies": 6366,
      "Ġexhausted": 6367,
      "Ġnectar": 6368,
      "Fine": 6369,
      "Uh": 6370,
      "band": 6371,
      "eke": 6372,
      "fl": 6373,
      "Ġtim": 6374,
      "Ġaff": 6375,
      "Ġlined": 6376,
      "Ġcough": 6377,
      "Ġwasted": 6378,
      "ley": 6379,
      "ĠyouÃ¢": 6380,
      "Ġgoals": 6381,
      "urry": 6382,
      "Ġmane": 6383,
      "Ġswooped": 6384,
      "ĠFriend": 6385,
      "Ġdeli": 6386,
      "ĠNan": 6387,
      "oline": 6388,
      "Ġbowls": 6389,
      "Ġinviting": 6390,
      "Ġpleasure": 6391,
      "Ġnetwork": 6392,
      "Ġawesome": 6393,
      "Ġjackets": 6394,
      "Ġdelivered": 6395,
      "Ġscrubbed": 6396,
      "Ġtemperature": 6397,
      "Days": 6398,
      "Rose": 6399,
      "njoy": 6400,
      "Ġcause": 6401,
      "arter": 6402,
      "immer": 6403,
      "Ġliqu": 6404,
      "Ġsmarter": 6405,
      "Ġrobb": 6406,
      "ongo": 6407,
      "ĠSpark": 6408,
      "Ġbehavi": 6409,
      "Ġreads": 6410,
      "Ġdarkness": 6411,
      "Ġfairies": 6412,
      "Ġmarked": 6413,
      "Ġwarri": 6414,
      "Ġspeaking": 6415,
      "Ġblooming": 6416,
      "Ġcopy": 6417,
      "Ġhallway": 6418,
      "Ġgroceries": 6419,
      "Ġliquid": 6420,
      "udy": 6421,
      "Ġwow": 6422,
      "eds": 6423,
      "Ġhi": 6424,
      "Ġpiggy": 6425,
      "ĠSus": 6426,
      "ĠHappy": 6427,
      "Ġsoaked": 6428,
      "Ġwears": 6429,
      "Ġscales": 6430,
      "Ġfever": 6431,
      "ĠLuke": 6432,
      "Ġknees": 6433,
      "Ġimportance": 6434,
      "uggles": 6435,
      "Ġprincesses": 6436,
      "Ġreply": 6437,
      "Ġblows": 6438,
      "ĠSnuggles": 6439,
      "Ġwires": 6440,
      "Ġachieved": 6441,
      "ĠFollow": 6442,
      "Ġcalmed": 6443,
      "Ġdrifted": 6444,
      "Ġcautiously": 6445,
      "Ġsnatched": 6446,
      "Maggie": 6447,
      "ĠĠĊ": 6448,
      "Ġty": 6449,
      "irts": 6450,
      "Ġstem": 6451,
      "Ġseven": 6452,
      "ĠJones": 6453,
      "Ġsomebody": 6454,
      "ĠEls": 6455,
      "Ġyourselves": 6456,
      "ĠwouldnÃ¢": 6457,
      "Ġcowb": 6458,
      "izzie": 6459,
      "Ġleading": 6460,
      "Ġribbons": 6461,
      "Ġrecommended": 6462,
      "Ġinterested": 6463,
      "Ġchuckled": 6464,
      "Ġbeads": 6465,
      "Ġdelivery": 6466,
      "ossible": 6467,
      "Ġsense": 6468,
      "Ġbars": 6469,
      "Ġglee": 6470,
      "Ġspong": 6471,
      "ĠJay": 6472,
      "Ġswirl": 6473,
      "Ġtwin": 6474,
      "emma": 6475,
      "Ġimpossible": 6476,
      "boat": 6477,
      "Ġpots": 6478,
      "ĠOw": 6479,
      "Ġmasks": 6480,
      "ÅĵWhatÃ¢": 6481,
      "Ġfluttered": 6482,
      "Ġbakery": 6483,
      "Ġsnowballs": 6484,
      "Ġdentist": 6485,
      "mies": 6486,
      "Ġmes": 6487,
      "ĠTess": 6488,
      "igning": 6489,
      "Ġrip": 6490,
      "Ġkites": 6491,
      "Ġlosing": 6492,
      "Ġremote": 6493,
      "Ġbadge": 6494,
      "Ġdreamt": 6495,
      "Ġnaps": 6496,
      "Ġnapkins": 6497,
      "Ġorganizing": 6498,
      "Ġwipes": 6499,
      "ĠZoom": 6500,
      "Ġknights": 6501,
      "Ġhelmets": 6502,
      "Ġtempt": 6503,
      "Ġstroll": 6504,
      "Ġstroked": 6505,
      "Ġpaddled": 6506,
      "Ġforgiven": 6507,
      "Ġmesmer": 6508,
      "Harry": 6509,
      "ik": 6510,
      "Ġlimes": 6511,
      "ĠAbbie": 6512,
      "ĠElly": 6513,
      "usband": 6514,
      "Ġlearns": 6515,
      "Ġjoking": 6516,
      "Ġcloses": 6517,
      "Ġfroze": 6518,
      "ĠJohnson": 6519,
      "Ġpointy": 6520,
      "Ġsecure": 6521,
      "ĠBeing": 6522,
      "Ġawake": 6523,
      "Ġpedals": 6524,
      "Ġbaker": 6525,
      "Ġannoy": 6526,
      "Unfortunately": 6527,
      "Ġcashier": 6528,
      "mallow": 6529,
      "Ġopp": 6530,
      "arling": 6531,
      "Ġbelly": 6532,
      "Ġcolored": 6533,
      "Ġhider": 6534,
      "Ġprotecting": 6535,
      "Ġpassen": 6536,
      "Ġsplashes": 6537,
      "Ġdetermination": 6538,
      "Ġseeker": 6539,
      "Ġfilling": 6540,
      "Ġradishes": 6541,
      "arshmallow": 6542,
      "Ġstomped": 6543,
      "ĠSuzie": 6544,
      "Tweety": 6545,
      "Ab": 6546,
      "ĠY": 6547,
      "ĠSorry": 6548,
      "Ġinsp": 6549,
      "ades": 6550,
      "ĠAmelia": 6551,
      "Ġnoses": 6552,
      "ĠMomo": 6553,
      "ĠPut": 6554,
      "Ġdeal": 6555,
      "Ġstorekeeper": 6556,
      "ĠDoggy": 6557,
      "Ġtallest": 6558,
      "Ġmuscle": 6559,
      "Ġtails": 6560,
      "Ġsigned": 6561,
      "Ġscaring": 6562,
      "Ġscarves": 6563,
      "Ġcandies": 6564,
      "Ġleaning": 6565,
      "Ġgiraff": 6566,
      "Ġobjects": 6567,
      "Ġsneaky": 6568,
      "Ġaccomplish": 6569,
      "Ġtipt": 6570,
      "Ġwarrior": 6571,
      "Ġsponge": 6572,
      "va": 6573,
      "Ġtig": 6574,
      "Ġaud": 6575,
      "Ġsib": 6576,
      "Ġhusband": 6577,
      "ouch": 6578,
      "iled": 6579,
      "Ġrising": 6580,
      "endy": 6581,
      "alph": 6582,
      "ĠJacob": 6583,
      "?\",": 6584,
      "Ġbacked": 6585,
      "Ġleap": 6586,
      "Ġmeals": 6587,
      "ĠWatch": 6588,
      "Ġeverybody": 6589,
      "ishy": 6590,
      "Ġcreations": 6591,
      "Ġunf": 6592,
      "ĠGet": 6593,
      "Ġafterwards": 6594,
      "Ġhealth": 6595,
      "brush": 6596,
      "Ġmiles": 6597,
      "Ġzookeeper": 6598,
      "Ġrecording": 6599,
      "Ġarrows": 6600,
      "Ġartist": 6601,
      "Ġcheeks": 6602,
      "Charlie": 6603,
      "Ġsnuggle": 6604,
      "Ġgiraffes": 6605,
      "Ġtigers": 6606,
      "For": 6607,
      "tuce": 6608,
      "vest": 6609,
      "ans": 6610,
      "Ġweeke": 6611,
      "ĠBongo": 6612,
      "itted": 6613,
      "ĠMira": 6614,
      "Ġaren": 6615,
      "icky": 6616,
      "Ġflapping": 6617,
      "Ġchip": 6618,
      "Ġlettuce": 6619,
      "Ġdancers": 6620,
      "Ġconn": 6621,
      "Ġconcer": 6622,
      "ĠPam": 6623,
      "ths": 6624,
      "Ġarr": 6625,
      "Ġsteer": 6626,
      "Ġparties": 6627,
      "Ġhides": 6628,
      "Ġmarks": 6629,
      "Ġdiving": 6630,
      "Ġsalty": 6631,
      "Ġgracefully": 6632,
      "Ġavoid": 6633,
      "Ġhesitated": 6634,
      "ĠGoodbye": 6635,
      "Ġtravelled": 6636,
      "ĠJeff": 6637,
      "Ġweekend": 6638,
      "Fin": 6639,
      "Ġcust": 6640,
      "Ġdots": 6641,
      "Ġmi": 6642,
      "ilo": 6643,
      "ann": 6644,
      "Ġthird": 6645,
      "Ġyum": 6646,
      "Ġfeast": 6647,
      "ĠLou": 6648,
      "aura": 6649,
      "Ġslices": 6650,
      "Ġsnuck": 6651,
      "ĠCra": 6652,
      "Ġracc": 6653,
      "ĠPrin": 6654,
      "Ġhandsome": 6655,
      "Ġdef": 6656,
      "Ġtricked": 6657,
      "Ġsailboat": 6658,
      "ĠFlopsy": 6659,
      "Ġpotion": 6660,
      "ments": 6661,
      "Ġburst": 6662,
      "Ġdiscussed": 6663,
      "Ġhesitant": 6664,
      "ĠNothing": 6665,
      "Ġrusty": 6666,
      "Ġtalented": 6667,
      "Ġtoddler": 6668,
      "Ġafford": 6669,
      "Ġcustom": 6670,
      "Ġraccoon": 6671,
      "aa": 6672,
      "ners": 6673,
      "uzzy": 6674,
      "Ġtangled": 6675,
      "Ġhissed": 6676,
      "ĠMa": 6677,
      "icked": 6678,
      "ĠFar": 6679,
      "Ġslam": 6680,
      "Ġdrawn": 6681,
      "Ġcorners": 6682,
      "Ġspoonful": 6683,
      "Ġpans": 6684,
      "Ġrequested": 6685,
      "ĠBetty": 6686,
      "Ġdirect": 6687,
      "Ġlungs": 6688,
      "Ġsiblings": 6689,
      "An": 6690,
      "Katie": 6691,
      "zes": 6692,
      "Ġcott": 6693,
      "Ġdie": 6694,
      "ids": 6695,
      "llen": 6696,
      "Ġneither": 6697,
      "Ġbackwards": 6698,
      "ept": 6699,
      "Ġflight": 6700,
      "ĠEarth": 6701,
      "Ġswept": 6702,
      "Ġhandful": 6703,
      "ĠRobby": 6704,
      "Ġprinting": 6705,
      "Ġpretends": 6706,
      "Ġdarker": 6707,
      "Ġsnowmen": 6708,
      "Ġembarrass": 6709,
      "Ġfolding": 6710,
      "Ġpumpkins": 6711,
      "Ġlogs": 6712,
      "Ġwraps": 6713,
      "ivity": 6714,
      "Ġsausages": 6715,
      "Ġfluttering": 6716,
      "Maria": 6717,
      "Ġtiptoed": 6718,
      "Ġmixture": 6719,
      "Boo": 6720,
      "ded": 6721,
      "eal": 6722,
      "pit": 6723,
      "Ġlower": 6724,
      "ility": 6725,
      "Ġrus": 6726,
      "ickey": 6727,
      "Ġchop": 6728,
      "ĠEnjoy": 6729,
      "Ġgrandp": 6730,
      "Ġgrabbing": 6731,
      "ĠJacky": 6732,
      "Ġadult": 6733,
      "Those": 6734,
      "ĠPo": 6735,
      "Ġdrawers": 6736,
      "ĠKayla": 6737,
      "Ġgasp": 6738,
      "ĠZoomy": 6739,
      "Meow": 6740,
      "ĠBuzzy": 6741,
      "Ġsuperheroes": 6742,
      "Ġinsects": 6743,
      "Ġwidened": 6744,
      "ĠPippin": 6745,
      "Ġcousin": 6746,
      "Ġaudience": 6747,
      "Great": 6748,
      "Ru": 6749,
      "Ġwins": 6750,
      "Ġocc": 6751,
      "Ġbeam": 6752,
      "ĠBinky": 6753,
      "ĠAunt": 6754,
      "Ġfears": 6755,
      "Ġworn": 6756,
      "Ġcond": 6757,
      "Ġwilling": 6758,
      "aker": 6759,
      "Ġwindy": 6760,
      "Ġgrassy": 6761,
      "Ġrivers": 6762,
      "umbling": 6763,
      "Ġstarfish": 6764,
      "Ġclowns": 6765,
      "Ġrefle": 6766,
      "Ġbasement": 6767,
      "Ġexperien": 6768,
      "Ġfamiliar": 6769,
      "Ġflavor": 6770,
      "Ġchefs": 6771,
      "Ġperforman": 6772,
      "Ġbeginning": 6773,
      "Ew": 6774,
      "abby": 6775,
      "cited": 6776,
      "no": 6777,
      "Ġgross": 6778,
      "ĠSophia": 6779,
      "sequ": 6780,
      "Ġrefu": 6781,
      "ĠMon": 6782,
      "ĠJazz": 6783,
      "iece": 6784,
      "Ġdads": 6785,
      "Ġbully": 6786,
      "Ġconsequ": 6787,
      "Ġuns": 6788,
      "Ġsnowfl": 6789,
      "Ġcreativity": 6790,
      "Ġforgetting": 6791,
      "Ġwrapping": 6792,
      "Ġcelebrating": 6793,
      "Toby": 6794,
      "Ġpaying": 6795,
      "Ġknocks": 6796,
      "Ġcomplained": 6797,
      "ĠRobert": 6798,
      "Ġsprinkled": 6799,
      "Ġfirefighter": 6800,
      "Roar": 6801,
      "ĠOlive": 6802,
      "Ġheavier": 6803,
      "Ġpouted": 6804,
      "ĠPrincess": 6805,
      "Ġgrandpare": 6806,
      "Run": 6807,
      "Whee": 6808,
      "Ġmerry": 6809,
      "ĠHoot": 6810,
      "Ġropes": 6811,
      "ados": 6812,
      "Ġwept": 6813,
      "Ġreass": 6814,
      "ĠMel": 6815,
      "Ġbodies": 6816,
      "ĠJune": 6817,
      "using": 6818,
      "ĠJojo": 6819,
      "Ġstays": 6820,
      "obody": 6821,
      "retty": 6822,
      "Ġkicks": 6823,
      "Ġshrinking": 6824,
      "Ġrecipe": 6825,
      "Ġsource": 6826,
      "Ġindeed": 6827,
      "Ġforks": 6828,
      "Ġscratches": 6829,
      "Ġavocados": 6830,
      "Ġseparated": 6831,
      "Ġprovided": 6832,
      "Ġsurroundings": 6833,
      "Shh": 6834,
      "ĠFox": 6835,
      "Ġpuppies": 6836,
      "Bad": 6837,
      "Danny": 6838,
      "Ellie": 6839,
      "Kate": 6840,
      "tle": 6841,
      "Ġwadd": 6842,
      "ĠHannah": 6843,
      "Ġrings": 6844,
      "Ġspikes": 6845,
      "ĠLizzie": 6846,
      "aula": 6847,
      "ĠEverybody": 6848,
      "iley": 6849,
      "Ġdollhouse": 6850,
      "Ġcrew": 6851,
      "ĠGary": 6852,
      "Ġbeloved": 6853,
      "ĠKeep": 6854,
      "Ġattack": 6855,
      "ĠWithout": 6856,
      "ĠBluey": 6857,
      "Ġtricky": 6858,
      "Ġseconds": 6859,
      "Ġhumans": 6860,
      "Ġpresses": 6861,
      "Ġincluding": 6862,
      "Ġgranted": 6863,
      "ĠFriends": 6864,
      "Ġconsequences": 6865,
      "?'": 6866,
      "Bl": 6867,
      "Milly": 6868,
      "Nemo": 6869,
      "cake": 6870,
      "fall": 6871,
      "wk": 6872,
      "Ġhour": 6873,
      "Ġdarling": 6874,
      "Ġmaster": 6875,
      "Ġnine": 6876,
      "Ġhawk": 6877,
      "Ġstool": 6878,
      "Ġplucked": 6879,
      "Ġgobbled": 6880,
      "ĠAbby": 6881,
      "Ġglued": 6882,
      "Ġdresser": 6883,
      "ĠNina": 6884,
      "athan": 6885,
      "Ġmagician": 6886,
      "Ġtalks": 6887,
      "Ġplans": 6888,
      "Ġneighbours": 6889,
      "Ġhoriz": 6890,
      "Ġwishing": 6891,
      "Ġedges": 6892,
      "Ġtunnels": 6893,
      "Ġgems": 6894,
      "Ġdelivering": 6895,
      "Ġneatly": 6896,
      "Ġinstrum": 6897,
      "Ġbehaved": 6898,
      "ĠGranny": 6899,
      "Ġdeserve": 6900,
      "Ġtimer": 6901,
      "Fo": 6902,
      "Wh": 6903,
      "urious": 6904,
      "Ġtouc": 6905,
      "ĠSpl": 6906,
      "ĠBessie": 6907,
      "Ġteased": 6908,
      "Ġamong": 6909,
      "Ġruining": 6910,
      "ĠJaney": 6911,
      "Ġscrews": 6912,
      "Ġsailors": 6913,
      "Ġplanning": 6914,
      "ĠStay": 6915,
      "Ġcrossing": 6916,
      "Ġlollipops": 6917,
      "Ġsymbols": 6918,
      "Ġbuzzed": 6919,
      "Ġwarnings": 6920,
      "Ġswimsuit": 6921,
      "Ġmaterials": 6922,
      "ĠSusan": 6923,
      "Ġaccomplishment": 6924,
      "Ġrushing": 6925,
      "Ġperformance": 6926,
      "Ġhorizon": 6927,
      "Nina": 6928,
      "Some": 6929,
      "Tw": 6930,
      "rig": 6931,
      "the": 6932,
      "Ġhitting": 6933,
      "Ġmarshmallow": 6934,
      "Ġpens": 6935,
      "Ġonward": 6936,
      "choo": 6937,
      "Ġspices": 6938,
      "Ġhelpers": 6939,
      "Ġfact": 6940,
      "Ġage": 6941,
      "ĠLi": 6942,
      "ĠListen": 6943,
      "Ġflas": 6944,
      "ÅĵDo": 6945,
      "Ġremembering": 6946,
      "Ġamount": 6947,
      "Ġblocking": 6948,
      "ĠOur": 6949,
      "Ġpaths": 6950,
      "Ġdrums": 6951,
      "ĠZara": 6952,
      "Ġdesigns": 6953,
      "Ġmushrooms": 6954,
      "ronaut": 6955,
      "Ġcobwebs": 6956,
      "Ġastronaut": 6957,
      "Ġechoed": 6958,
      "Ġdirections": 6959,
      "Ġtouches": 6960,
      "Dan": 6961,
      "Even": 6962,
      "Ġmer": 6963,
      "atur": 6964,
      "Ġsan": 6965,
      "Ġstung": 6966,
      "Ġonions": 6967,
      "Ġplayers": 6968,
      "step": 6969,
      "Ġleast": 6970,
      "Ġbru": 6971,
      "Ġteles": 6972,
      "Ġraces": 6973,
      "Ġstrongest": 6974,
      "ĠRemember": 6975,
      "Ġchoices": 6976,
      "Ġbaskets": 6977,
      "Ġforgets": 6978,
      "Ġpeacefully": 6979,
      "Ġmatters": 6980,
      "Ġtested": 6981,
      "Ġresisted": 6982,
      "ĠRobbie": 6983,
      "ÅĵYouÃ¢": 6984,
      "ably": 6985,
      "Ġwiggle": 6986,
      "Ġdamage": 6987,
      "Ġscraped": 6988,
      "Ruby": 6989,
      "Ġmarshmallows": 6990,
      "Ġtelescope": 6991,
      "Pe": 6992,
      "Time": 6993,
      "Tina": 6994,
      "fire": 6995,
      "tier": 6996,
      "ĠQ": 6997,
      "Ġcor": 6998,
      "ĠSqu": 6999,
      "ĠSque": 7000,
      "rip": 7001,
      "Ġyounger": 7002,
      "ntil": 7003,
      "ĠWell": 7004,
      "ĠEl": 7005,
      "Ġvines": 7006,
      "Ġprettier": 7007,
      "ÅĵWow": 7008,
      "ÅĵMy": 7009,
      "Ġconvers": 7010,
      "Ġgrowls": 7011,
      "Ġbaths": 7012,
      "Ġimagining": 7013,
      "Ġhonked": 7014,
      "Ġgenie": 7015,
      "Ġpoems": 7016,
      "Ġminerals": 7017,
      "Ġrustling": 7018,
      "ĠTwo": 7019,
      "Ġgreeted": 7020,
      "Ġpassengers": 7021,
      "Ġoccas": 7022,
      "Ġsank": 7023,
      "During": 7024,
      "Kim": 7025,
      "dges": 7026,
      "iel": 7027,
      "now": 7028,
      "Ġtuck": 7029,
      "ition": 7030,
      "Ġmast": 7031,
      "Ġmunch": 7032,
      "aying": 7033,
      "Ġstitches": 7034,
      "Ġneare": 7035,
      "ĠJudy": 7036,
      "Ġscient": 7037,
      "Ġadults": 7038,
      "Ġache": 7039,
      "Ġnearly": 7040,
      "Ġcuriously": 7041,
      "Ġrespond": 7042,
      "Ġimages": 7043,
      "ĠStitch": 7044,
      "Ġfeeding": 7045,
      "Ġvanilla": 7046,
      "Ġpraying": 7047,
      "Ġborrowed": 7048,
      "artha": 7049,
      "Ġcushions": 7050,
      "manda": 7051,
      "Ġcomplaining": 7052,
      "Ġincreased": 7053,
      "ĠFrog": 7054,
      "Ġbehaving": 7055,
      "Ġcommun": 7056,
      "immering": 7057,
      "Ġbehavior": 7058,
      "Ġmesmerized": 7059,
      "ĠFarmer": 7060,
      "Ġunsure": 7061,
      "Ġscientist": 7062,
      "By": 7063,
      "Ducky": 7064,
      "May": 7065,
      "Mad": 7066,
      "aired": 7067,
      "ky": 7068,
      "lves": 7069,
      "Ġcoral": 7070,
      "ĠTara": 7071,
      "Ġsale": 7072,
      "Ġplaytime": 7073,
      "Ġnotes": 7074,
      "allowed": 7075,
      "ĠWendy": 7076,
      "ĠLena": 7077,
      "Ġswallowed": 7078,
      "ueen": 7079,
      "Ġtramp": 7080,
      "Ġtwice": 7081,
      "Ġwobbly": 7082,
      "Ġdances": 7083,
      "Ġzipping": 7084,
      "ĠAsh": 7085,
      "Ġjoyful": 7086,
      "Ġstands": 7087,
      "Ġdrivers": 7088,
      "Ġhopeful": 7089,
      "Ġrepaired": 7090,
      "Ġsunflowers": 7091,
      "Ġenthusi": 7092,
      "Ġrewarded": 7093,
      "Ġcenter": 7094,
      "rigued": 7095,
      "Ġtrampoline": 7096,
      "Have": 7097,
      "Our": 7098,
      "Oops": 7099,
      "Ġcoup": 7100,
      "Ġpours": 7101,
      "Ġoh": 7102,
      "Ġnibb": 7103,
      "ĠSc": 7104,
      "Ġnoon": 7105,
      "Ġscen": 7106,
      "Ġcoc": 7107,
      "Ġflown": 7108,
      "ĠEx": 7109,
      "Ġswords": 7110,
      "Ġtreehouse": 7111,
      "Ġtrot": 7112,
      "Ġbraver": 7113,
      "Ġwobble": 7114,
      "Ġwobbled": 7115,
      "ÅĵHi": 7116,
      "ÅĵWell": 7117,
      "Ġdropping": 7118,
      "Ġhearing": 7119,
      "attered": 7120,
      "Ġhealing": 7121,
      "Ġaction": 7122,
      "Ġspreading": 7123,
      "ĠMikey": 7124,
      "ĠFroggy": 7125,
      "ĠBirthday": 7126,
      "Ġgeese": 7127,
      "Ġarranged": 7128,
      "Ġenthusiasm": 7129,
      "Ġcouple": 7130,
      "dri": 7131,
      "ippy": 7132,
      "weed": 7133,
      "yes": 7134,
      "initely": 7135,
      "itched": 7136,
      "itude": 7137,
      "Ġdet": 7138,
      "atul": 7139,
      "Ġnood": 7140,
      "Ġease": 7141,
      "ĠMouse": 7142,
      "ĠMilo": 7143,
      "ĠMickey": 7144,
      "idey": 7145,
      "Ġjugg": 7146,
      "Ġspins": 7147,
      "Ġblast": 7148,
      "ĠFuzzy": 7149,
      "Ġpecked": 7150,
      "Ġslips": 7151,
      "iona": 7152,
      "Ġfinal": 7153,
      "Ġfinishing": 7154,
      "ĠPr": 7155,
      "acy": 7156,
      "Ġwarmer": 7157,
      "Ġsandpit": 7158,
      "Ġlighter": 7159,
      "Ġslower": 7160,
      "Ġelf": 7161,
      "anging": 7162,
      "Ġprove": 7163,
      "Ġbeeh": 7164,
      "ĠThanks": 7165,
      "Ġwiping": 7166,
      "Ġheroes": 7167,
      "Ġencourag": 7168,
      "Ġtriangles": 7169,
      "Ġrefreshing": 7170,
      "Ġtravelling": 7171,
      "Ġguests": 7172,
      "Ġ10": 7173,
      "ĠQuack": 7174,
      "ĠQueen": 7175,
      "--": 7176,
      "Like": 7177,
      "bell": 7178,
      "bird": 7179,
      "ĊĊ": 7180,
      "Ġ2": 7181,
      "Ġaimed": 7182,
      "Ġsadd": 7183,
      "ĠSmo": 7184,
      "imon": 7185,
      "Ġthorn": 7186,
      "ĠHolly": 7187,
      "veral": 7188,
      "Ġplain": 7189,
      "adie": 7190,
      "Ġshirts": 7191,
      "Ġreason": 7192,
      "ĠMabel": 7193,
      "Ġseveral": 7194,
      "ĠLaura": 7195,
      "Ġflips": 7196,
      "Ġposs": 7197,
      "Ġexplo": 7198,
      "Ġoffic": 7199,
      "ÅĵMom": 7200,
      "ÅĵCome": 7201,
      "ÅĵNow": 7202,
      "Ġthrown": 7203,
      "Ġdefe": 7204,
      "ĠNobody": 7205,
      "Ġsteady": 7206,
      "Ġpennies": 7207,
      "Ġseaweed": 7208,
      "Ġlifting": 7209,
      "Ġacting": 7210,
      "ertain": 7211,
      "ĠAlthough": 7212,
      "Ġantic": 7213,
      "Ġexamining": 7214,
      "Ġseller": 7215,
      "Ġawo": 7216,
      "ĠUnder": 7217,
      "Ġcampfire": 7218,
      "Ġoysters": 7219,
      "Ġbreathed": 7220,
      "Ġvideos": 7221,
      "Ġfirefly": 7222,
      "Ġyielded": 7223,
      "Ġfocused": 7224,
      "ĠElsa": 7225,
      "Ġdefinitely": 7226,
      "Follow": 7227,
      "Br": 7228,
      "Lilly": 7229,
      "Pat": 7230,
      "Tr": 7231,
      "Yummy": 7232,
      "ears": 7233,
      "yond": 7234,
      "Ġsy": 7235,
      "Ġfaded": 7236,
      "ĠSun": 7237,
      "anes": 7238,
      "Ġbeyond": 7239,
      "Ġstain": 7240,
      "rie": 7241,
      "stick": 7242,
      "Ġscamp": 7243,
      "Ġchos": 7244,
      "Ġpeck": 7245,
      "Ġheading": 7246,
      "Ġsquishy": 7247,
      "ĠThose": 7248,
      "Ġbows": 7249,
      "Ġpolitely": 7250,
      "Ġvisitor": 7251,
      "Ġcupcakes": 7252,
      "Ġchopped": 7253,
      "Ġcausing": 7254,
      "Ġexpress": 7255,
      "Ġlifts": 7256,
      "Steve": 7257,
      "illiam": 7258,
      "Ġthud": 7259,
      "years": 7260,
      "Ġcuddly": 7261,
      "Ġproper": 7262,
      "Ġsports": 7263,
      "Ġfreedom": 7264,
      "Ġsnowflakes": 7265,
      "Ġnoodles": 7266,
      "Ġbeehive": 7267,
      "Ġchosen": 7268,
      "aven": 7269,
      "bro": 7270,
      "cher": 7271,
      "ratul": 7272,
      "while": 7273,
      "Ġdaring": 7274,
      "inger": 7275,
      "Ġsofter": 7276,
      "str": 7277,
      "unched": 7278,
      "ently": 7279,
      "Ġshown": 7280,
      "Ġroars": 7281,
      "ongratul": 7282,
      "Ġwhose": 7283,
      "ĠFire": 7284,
      "Ġtwenty": 7285,
      "ĠSpidey": 7286,
      "ĠRain": 7287,
      "Ġwarmly": 7288,
      "Ġthroughout": 7289,
      "ĠwonÃ¢": 7290,
      "Ġdived": 7291,
      "ĠAlong": 7292,
      "Ġnervously": 7293,
      "Ġtwisting": 7294,
      "Ġdiamonds": 7295,
      "Ġtoaster": 7296,
      "Ġsniffs": 7297,
      "Ġsneezing": 7298,
      "Ġsurfboard": 7299,
      "Ġstacked": 7300,
      "Ġinsisting": 7301,
      "ĠAbi": 7302,
      "Ġpupils": 7303,
      "Ġflavors": 7304,
      "Ġrobber": 7305,
      "Ġcowboy": 7306,
      "Ġslammed": 7307,
      "Car": 7308,
      "Miss": 7309,
      "Sadly": 7310,
      "Woof": 7311,
      "cl": 7312,
      "mered": 7313,
      "Ġaim": 7314,
      "ido": 7315,
      "onies": 7316,
      "Ġinj": 7317,
      "utter": 7318,
      "ĠBo": 7319,
      "ĠBoun": 7320,
      "ĠJax": 7321,
      "Ġcharge": 7322,
      "Ġintrigued": 7323,
      "Ġovercome": 7324,
      "Ġpuff": 7325,
      "Ġexplorer": 7326,
      "Ġstopping": 7327,
      "Ġwrink": 7328,
      "ĠGemma": 7329,
      "Ġtables": 7330,
      "ĠKaren": 7331,
      "otten": 7332,
      "Ġbelongings": 7333,
      "Ġmailed": 7334,
      "Ġdriveway": 7335,
      "Ġignoring": 7336,
      "Ġdecorating": 7337,
      "Ġwhispers": 7338,
      "Ġtwisty": 7339,
      "Ġstreamers": 7340,
      "Ġdesigned": 7341,
      "Ġgrandson": 7342,
      "Ġstatues": 7343,
      "Ġperforming": 7344,
      "Ġlending": 7345,
      "Ġtwinkled": 7346,
      "Ġloops": 7347,
      "Ġwhispering": 7348,
      "Ġsuffered": 7349,
      "Ġlicking": 7350,
      "Ġsewed": 7351,
      "ĠSparky": 7352,
      "iki": 7353,
      "Ġgrandparents": 7354,
      "Blue": 7355,
      "Ġawoke": 7356,
      "Jerry": 7357,
      "Su": 7358,
      "cter": 7359,
      "upt": 7360,
      "yan": 7361,
      "Ġfant": 7362,
      "Ġdot": 7363,
      "Ġmate": 7364,
      "Ġponies": 7365,
      "Ġrotten": 7366,
      "Ġplayroom": 7367,
      "Ġshoo": 7368,
      "Ġroses": 7369,
      "Ġcoach": 7370,
      "Ġcosy": 7371,
      "Ġprob": 7372,
      "Ġgoodies": 7373,
      "Ġsled": 7374,
      "Ġbeautifully": 7375,
      "Ġdollars": 7376,
      "Ġunw": 7377,
      "Ġforests": 7378,
      "ĠRavi": 7379,
      "Ġbelts": 7380,
      "uffin": 7381,
      "Ġunderstands": 7382,
      "meal": 7383,
      "Ġjoining": 7384,
      "Ġfits": 7385,
      "Ġcalmly": 7386,
      "Ġleads": 7387,
      "ĠZero": 7388,
      "Ġswans": 7389,
      "Ġoatmeal": 7390,
      "Ġsurrendered": 7391,
      "Ġquarreling": 7392,
      "Ġnovels": 7393,
      "Ġresults": 7394,
      "Ġpunishment": 7395,
      "Ġtrembled": 7396,
      "Ġwider": 7397,
      "Ġreflection": 7398,
      "ĠSquirrel": 7399,
      "ĠSqueaky": 7400,
      "Ġanticip": 7401,
      "Ġscampered": 7402,
      "Ġfantastic": 7403,
      "Ġprobably": 7404,
      "Adam": 7405,
      "Surpr": 7406,
      "ael": 7407,
      "eel": 7408,
      "rup": 7409,
      "sm": 7410,
      "sers": 7411,
      "whe": 7412,
      "Ġtiss": 7413,
      "Ġtying": 7414,
      "Ġgap": 7415,
      "Ġnapping": 7416,
      "anwhile": 7417,
      "iment": 7418,
      "onse": 7419,
      "rier": 7420,
      "ĠBee": 7421,
      "Ġmanag": 7422,
      "ĠWally": 7423,
      "Ġchara": 7424,
      "ĠDr": 7425,
      "Ġslither": 7426,
      "Ġwaterfall": 7427,
      "Ġfins": 7428,
      "Ġcolder": 7429,
      "ichael": 7430,
      "Ġfoxes": 7431,
      "Ġshops": 7432,
      "ounced": 7433,
      "Ġresponse": 7434,
      "Ġpicnics": 7435,
      "Ġappreciated": 7436,
      "Ġconfl": 7437,
      "ĠJulia": 7438,
      "ĠChris": 7439,
      "Ġperformed": 7440,
      "rrr": 7441,
      "ĠBirdy": 7442,
      "Frank": 7443,
      "Ġrisks": 7444,
      "Ġforgiveness": 7445,
      "Ġconnected": 7446,
      "Ġmerma": 7447,
      "broken": 7448,
      "Ġcharacter": 7449,
      "Baby": 7450,
      "Jul": 7451,
      "Listen": 7452,
      "Very": 7453,
      "crow": 7454,
      "mates": 7455,
      "Ġais": 7456,
      "its": 7457,
      "Ġcertain": 7458,
      "ilted": 7459,
      "Ġgest": 7460,
      "ĠSk": 7461,
      "ĠSw": 7462,
      "cky": 7463,
      "child": 7464,
      "ĠMartha": 7465,
      "Ġaside": 7466,
      "Ġscored": 7467,
      "ĠWin": 7468,
      "ĠLove": 7469,
      "Ġposter": 7470,
      "Ġposit": 7471,
      "Ġtweet": 7472,
      "Ġhanding": 7473,
      "Ġgardener": 7474,
      "Ġconvin": 7475,
      "Ġrainy": 7476,
      "ĠRalph": 7477,
      "Ġelbow": 7478,
      "Ġcloudy": 7479,
      "ĠStan": 7480,
      "Ġpostman": 7481,
      "Ġsniffing": 7482,
      "ĠUntil": 7483,
      "Ġgrandchild": 7484,
      "Ġappreciation": 7485,
      "Ġscrewdri": 7486,
      "Tweetie": 7487,
      "Ġspills": 7488,
      "Ġseashells": 7489,
      "Ġannoyed": 7490,
      "Abigail": 7491,
      "ĠCrabby": 7492,
      "Ġwaddled": 7493,
      "Ġencouraging": 7494,
      "Ġsyrup": 7495,
      "Ġanticipation": 7496,
      "Ġscrewdriver": 7497,
      "Back": 7498,
      "Tilly": 7499,
      "ae": 7500,
      "but": 7501,
      "found": 7502,
      "oss": 7503,
      "Ġtar": 7504,
      "Ġtipped": 7505,
      "Ġwag": 7506,
      "rey": 7507,
      "Ġlent": 7508,
      "Ġni": 7509,
      "ana": 7510,
      "onna": 7511,
      "espite": 7512,
      "ooking": 7513,
      "Ġramp": 7514,
      "Ġweeds": 7515,
      "Ġshady": 7516,
      "Ġkings": 7517,
      "Ġreun": 7518,
      "ĠMo": 7519,
      "Ġjars": 7520,
      "ĠAny": 7521,
      "Ġexcept": 7522,
      "ighting": 7523,
      "Ġnodd": 7524,
      "Ġchanging": 7525,
      "Ġwatering": 7526,
      "Ġsmallest": 7527,
      "Ġsnort": 7528,
      "Ġbravest": 7529,
      "Ġcheers": 7530,
      "ĠPandy": 7531,
      "Ġsweetest": 7532,
      "Ġcraft": 7533,
      "Ġworrying": 7534,
      "Ġsails": 7535,
      "Ġbelieving": 7536,
      "Ġheartbroken": 7537,
      "Ġlaying": 7538,
      "Ġpops": 7539,
      "Ġbells": 7540,
      "Ġnecklaces": 7541,
      "Ġsuggestion": 7542,
      "Ġpreparing": 7543,
      "Ġpedaled": 7544,
      "Ġreversed": 7545,
      "Ġstudents": 7546,
      "Ġincreasing": 7547,
      "Ġresponsib": 7548,
      "Quick": 7549,
      "Ġsuffering": 7550,
      "ĠSplash": 7551,
      "Ġconversation": 7552,
      "Ġofficers": 7553,
      "Bet": 7554,
      "Beth": 7555,
      "Karen": 7556,
      "Mine": 7557,
      "father": 7558,
      "munk": 7559,
      "ollen": 7560,
      "ĠX": 7561,
      "Ġties": 7562,
      "Ġtumbled": 7563,
      "Ġgonna": 7564,
      "ambled": 7565,
      "Ġstumble": 7566,
      "storm": 7567,
      "Ġreapp": 7568,
      "Ġswollen": 7569,
      "ÅĵOf": 7570,
      "Ġconqu": 7571,
      "Ġblocked": 7572,
      "Ġbiting": 7573,
      "Ġnests": 7574,
      "Ġrespected": 7575,
      "Ġangels": 7576,
      "Ġpepperoni": 7577,
      "Ġbatteries": 7578,
      "Ġpermitted": 7579,
      "Ġzebras": 7580,
      "Ġmeowing": 7581,
      "Ġpuppet": 7582,
      "Ġgears": 7583,
      "Ġconcert": 7584,
      "Ġreassured": 7585,
      "Ġtrotted": 7586,
      "Bill": 7587,
      "Bunny": 7588,
      "Each": 7589,
      "Jamie": 7590,
      "Rob": 7591,
      "cie": 7592,
      "wise": 7593,
      "Ġtoss": 7594,
      "Ġheight": 7595,
      "ĠTuna": 7596,
      "ĠSal": 7597,
      "order": 7598,
      "Ġev": 7599,
      "Ġearn": 7600,
      "Ġund": 7601,
      "Ġrather": 7602,
      "Ġstall": 7603,
      "ĠthatÃ¢": 7604,
      "ĠMart": 7605,
      "Ġsmashed": 7606,
      "Ġanger": 7607,
      "Ġspook": 7608,
      "Ġmemb": 7609,
      "Ġnewfound": 7610,
      "Ġblond": 7611,
      "Ġthoughts": 7612,
      "Ġtapped": 7613,
      "Ġskunk": 7614,
      "Ġquilt": 7615,
      "ection": 7616,
      "Whenever": 7617,
      "Ġwrigg": 7618,
      "Ġtoward": 7619,
      "athy": 7620,
      "Ġfires": 7621,
      "Ġdrown": 7622,
      "Ġcrashing": 7623,
      "Ġpromises": 7624,
      "Ġcounts": 7625,
      "ĠTodd": 7626,
      "Ġvegg": 7627,
      "Ġpaintbrush": 7628,
      "Ġplanting": 7629,
      "Ġstreets": 7630,
      "Ġpays": 7631,
      "Ġscrambled": 7632,
      "ĠZip": 7633,
      "Ġsoapy": 7634,
      "Ġsuits": 7635,
      "ĠDavey": 7636,
      "Ġdiscoveries": 7637,
      "Ġspeeding": 7638,
      "uctor": 7639,
      "Ġpassports": 7640,
      "Anne": 7641,
      "amboo": 7642,
      "Ġdelayed": 7643,
      "Ġwiggly": 7644,
      "Ġuniforms": 7645,
      "Ġefforts": 7646,
      "Ġdamaged": 7647,
      "Ġfirmly": 7648,
      "ĠLouise": 7649,
      "Ġmermaid": 7650,
      "Ġspooky": 7651,
      "Ġmembers": 7652,
      "?!\"": 7653,
      "Out": 7654,
      "Rachel": 7655,
      "ms": 7656,
      "oey": 7657,
      "prin": 7658,
      "sie": 7659,
      "vas": 7660,
      "Ġwoof": 7661,
      "Ġhoo": 7662,
      "Ġpound": 7663,
      "Ġnuzz": 7664,
      "ances": 7665,
      "orter": 7666,
      "ĠHope": 7667,
      "amma": 7668,
      "Ġbeating": 7669,
      "Ġsoot": 7670,
      "ading": 7671,
      "ĠMuffin": 7672,
      "ugs": 7673,
      "Ġsped": 7674,
      "fus": 7675,
      "ĠAmanda": 7676,
      "romise": 7677,
      "usty": 7678,
      "ĠFuzz": 7679,
      "ĠFiona": 7680,
      "ĠFido": 7681,
      "Ġcleared": 7682,
      "ÅĵOkay": 7683,
      "Ġdangers": 7684,
      "Ġcleaner": 7685,
      "ĠGina": 7686,
      "Ġrains": 7687,
      "Ġhops": 7688,
      "Ġmonths": 7689,
      "Ġtablet": 7690,
      "Ġjudges": 7691,
      "Ġshaped": 7692,
      "Ġmints": 7693,
      "Ġbandages": 7694,
      "Ġpanicked": 7695,
      "Ġtidied": 7696,
      "Ġclearly": 7697,
      "Ġfills": 7698,
      "Ġaddress": 7699,
      "Ġfishes": 7700,
      "Ġcovering": 7701,
      "Ġmagnif": 7702,
      "Ġfrowning": 7703,
      "ivia": 7704,
      "Ġcuddles": 7705,
      "Ġsurfing": 7706,
      "Ġmillion": 7707,
      "Ġexercises": 7708,
      "Ġbreathing": 7709,
      "Ġstroke": 7710,
      "Ġpurrs": 7711,
      "Ġdiscussing": 7712,
      "Ġbrushing": 7713,
      "ĠMaddy": 7714,
      "ĠQuick": 7715,
      "Ġoppos": 7716,
      "Ġinspired": 7717,
      "Ġconductor": 7718,
      "steps": 7719,
      "Ġtissue": 7720,
      "Ġtarget": 7721,
      "Ġveggies": 7722,
      "Penny": 7723,
      "water": 7724,
      "Ġdep": 7725,
      "ening": 7726,
      "Ġnur": 7727,
      "Ġrout": 7728,
      "Ġsoaking": 7729,
      "Ġkittens": 7730,
      "Ġseals": 7731,
      "Ġcanvas": 7732,
      "Ġalien": 7733,
      "Ġtreated": 7734,
      "Ġthanking": 7735,
      "ĠFighting": 7736,
      "Ġtrans": 7737,
      "Ġuntie": 7738,
      "ĠCle": 7739,
      "asty": 7740,
      "ÅĵHey": 7741,
      "Ġdoorway": 7742,
      "ĠPaula": 7743,
      "ĠRock": 7744,
      "Ġnights": 7745,
      "ĠThatÃ¢": 7746,
      "Ġsmelling": 7747,
      "ĠKelly": 7748,
      "Ġsparks": 7749,
      "Ġsprout": 7750,
      "Ġpackages": 7751,
      "Ġdesper": 7752,
      "ails": 7753,
      "Ġpuzzled": 7754,
      "Ġfootsteps": 7755,
      "Ġtoolbox": 7756,
      "ĠAli": 7757,
      "ĠAlison": 7758,
      "Ġreminding": 7759,
      "Ġtidying": 7760,
      "Ġwisely": 7761,
      "Ġsqueezing": 7762,
      "ĠUp": 7763,
      "Ġtravels": 7764,
      "Ġgrandfather": 7765,
      "Ġpigeons": 7766,
      "Ġloading": 7767,
      "Ġartwork": 7768,
      "Ġmagazines": 7769,
      "Ġdisplayed": 7770,
      "Ġprevented": 7771,
      "Chloe": 7772,
      "Ġsqueak": 7773,
      "Ġadmiration": 7774,
      "Ġglobe": 7775,
      "ĠMaya": 7776,
      "Ġmaterial": 7777,
      "Ġexperienced": 7778,
      "Ġrefuse": 7779,
      "Ġoccasion": 7780,
      "eeling": 7781,
      "Ġconvinced": 7782,
      "Ġreunited": 7783,
      "Hannah": 7784,
      "bage": 7785,
      "cent": 7786,
      "mi": 7787,
      "pen": 7788,
      "Ġsou": 7789,
      "rew": 7790,
      "Ġcoug": 7791,
      "Ġheaven": 7792,
      "Ġmoo": 7793,
      "ĠTake": 7794,
      "arrow": 7795,
      "Ġger": 7796,
      "Ġnasty": 7797,
      "Ġsav": 7798,
      "ĠSleep": 7799,
      "ighing": 7800,
      "Ġrays": 7801,
      "Ġmommies": 7802,
      "ĠMichael": 7803,
      "Ġank": 7804,
      "Ġspy": 7805,
      "lph": 7806,
      "aret": 7807,
      "Ġgoodby": 7808,
      "Ġchin": 7809,
      "Ġchilly": 7810,
      "Ġblinking": 7811,
      "inkle": 7812,
      "Ġfond": 7813,
      "ÅĵWhere": 7814,
      "ĠPu": 7815,
      "Ġdressing": 7816,
      "Ġduckling": 7817,
      "Ġswimmer": 7818,
      "ordinary": 7819,
      "Ġdistract": 7820,
      "Ġdespite": 7821,
      "Ġimaginary": 7822,
      "Ġhonking": 7823,
      "Ġshrunk": 7824,
      "Ġchocolates": 7825,
      "Ġbanged": 7826,
      "Ġpleaded": 7827,
      "Ġsolving": 7828,
      "Ġtrusting": 7829,
      "Ġgarbage": 7830,
      "Ġcrowns": 7831,
      "Ġcamel": 7832,
      "Ġguessing": 7833,
      "Ġextraordinary": 7834,
      "Ġsending": 7835,
      "...\"": 7836,
      "Ġrotting": 7837,
      "Ġvehicles": 7838,
      "Ġsqueaked": 7839,
      "Ġsewing": 7840,
      "Ġaccomplished": 7841,
      "Ġswayed": 7842,
      "Ġsternly": 7843,
      "Clara": 7844,
      "ĠTessa": 7845,
      "Two": 7846,
      "Ġmunching": 7847,
      "Ġevil": 7848,
      "Ġopposite": 7849,
      "Ġgoodbyes": 7850,
      "Claire": 7851,
      "Dear": 7852,
      "Take": 7853,
      "fia": 7854,
      "gain": 7855,
      "hind": 7856,
      "vant": 7857,
      "vroom": 7858,
      "hew": 7859,
      "Ġbamboo": 7860,
      "isions": 7861,
      "idence": 7862,
      "ori": 7863,
      "ĠHallow": 7864,
      "Ġrin": 7865,
      "ĠIm": 7866,
      "Ġwithin": 7867,
      "ĠBri": 7868,
      "ĠBaa": 7869,
      "Ġdod": 7870,
      "Ġdoves": 7871,
      "Ġwhoo": 7872,
      "ĠMaisy": 7873,
      "Ġloc": 7874,
      "Ġspat": 7875,
      "Ġexch": 7876,
      "Ġknots": 7877,
      "Ġmanners": 7878,
      "Ġlapt": 7879,
      "Ġlasers": 7880,
      "Ġflipped": 7881,
      "ilda": 7882,
      "ÅĵBut": 7883,
      "TMd": 7884,
      "Ġdisc": 7885,
      "ĠNora": 7886,
      "ĠDog": 7887,
      "airy": 7888,
      "uggy": 7889,
      "Ġcomforting": 7890,
      "screen": 7891,
      "Ġgenerosity": 7892,
      "Ġscrub": 7893,
      "Ġprayers": 7894,
      "ĠSnap": 7895,
      "Ġwealth": 7896,
      "Ġenviron": 7897,
      "ĠFinn": 7898,
      "ĠPepper": 7899,
      "Ġemerged": 7900,
      "Ġobeyed": 7901,
      "Ġcubes": 7902,
      "ĠMaddie": 7903,
      "Ġchipmunk": 7904,
      "Ġcustomers": 7905,
      "citedly": 7906,
      "Ġmasterp": 7907,
      "Ġresponded": 7908,
      "Ġnibbled": 7909,
      "Ġcocoon": 7910,
      "Ġgesture": 7911,
      "ĠHalloween": 7912,
      "Ġenvironment": 7913,
      "Any": 7914,
      "Watch": 7915,
      "eedy": 7916,
      "oc": 7917,
      "rink": 7918,
      "Ġhen": 7919,
      "Ġmood": 7920,
      "Ġmaker": 7921,
      "Ġnatur": 7922,
      "ĠSuper": 7923,
      "oration": 7924,
      "Ġinter": 7925,
      "Ġsheets": 7926,
      "ittered": 7927,
      "lyn": 7928,
      "icate": 7929,
      "Ġbride": 7930,
      "ĠWelcome": 7931,
      "Ġdecl": 7932,
      "Ġchanges": 7933,
      "Ġsunscreen": 7934,
      "Ġbrains": 7935,
      "Ġdonkey": 7936,
      "Ġsurprising": 7937,
      "acles": 7938,
      "Ġbusiness": 7939,
      "Ġmovements": 7940,
      "Ġmarve": 7941,
      "Ġvisits": 7942,
      "Ġgrows": 7943,
      "Ġcollap": 7944,
      "Ġafar": 7945,
      "Ġstorms": 7946,
      "Ġpinching": 7947,
      "Ġdigs": 7948,
      "Ġawful": 7949,
      "Always": 7950,
      "Ġunlo": 7951,
      "Ġshovels": 7952,
      "Ġconfidence": 7953,
      "Ġburying": 7954,
      "Ġpeeled": 7955,
      "Ġencouragement": 7956,
      "Ġpaddling": 7957,
      "Ġglittering": 7958,
      "Ġforgiving": 7959,
      "intment": 7960,
      "Ġtype": 7961,
      "Ġwrinkled": 7962,
      "Surprise": 7963,
      "Ġankle": 7964,
      "Ġlaptop": 7965,
      "Jess": 7966,
      "Rosie": 7967,
      "dress": 7968,
      "even": 7969,
      "ps": 7970,
      "we": 7971,
      "worm": 7972,
      "Ġting": 7973,
      "Ġwakes": 7974,
      "rect": 7975,
      "ĠTaking": 7976,
      "Ġgroom": 7977,
      "ider": 7978,
      "ats": 7979,
      "ĠSl": 7980,
      "ĠSimon": 7981,
      "anish": 7982,
      "immered": 7983,
      "Ġform": 7984,
      "elie": 7985,
      "rying": 7986,
      "artled": 7987,
      "ĠWilliam": 7988,
      "Ġwhoever": 7989,
      "Ġdecisions": 7990,
      "Ġflick": 7991,
      "Ġflip": 7992,
      "Ġwaters": 7993,
      "ipes": 7994,
      "ĠRyan": 7995,
      "Ġforgives": 7996,
      "issa": 7997,
      "Ġbits": 7998,
      "Ġhairdress": 7999,
      "boards": 8000,
      "Ġlessons": 8001,
      "Ġfloors": 8002,
      "Ġtighter": 8003,
      "Ġcompared": 8004,
      "ĠJennie": 8005,
      "Ġcupcake": 8006,
      "Ġjobs": 8007,
      "ĠOther": 8008,
      "Ġtroubles": 8009,
      "Ġpresented": 8010,
      "Ġmattered": 8011,
      "Ġrecorder": 8012,
      "Ġprick": 8013,
      "Ġsweep": 8014,
      "Ġpandas": 8015,
      "ĠSnowman": 8016,
      "Ġtires": 8017,
      "Ġrepeating": 8018,
      "Ġspells": 8019,
      "Ġlipstick": 8020,
      "Ġlanguages": 8021,
      "Ġbothering": 8022,
      "Ġsnaps": 8023,
      "ĠOlivia": 8024,
      "ĠMeg": 8025,
      "Ġleapt": 8026,
      "Ġbruises": 8027,
      "Ġcorrect": 8028,
      "Ġnearest": 8029,
      "Ġsadder": 8030,
      "Ġthorns": 8031,
      "Ġconflict": 8032,
      "Ġnodding": 8033,
      "Ġtransf": 8034,
      "Ġgerms": 8035,
      "Ġnatural": 8036,
      "Ġhairdresser": 8037,
      "Buddy": 8038,
      "Buzz": 8039,
      "Boys": 8040,
      "Get": 8041,
      "Jessie": 8042,
      "Pl": 8043,
      "evin": 8044,
      "lt": 8045,
      "line": 8046,
      "pes": 8047,
      "what": 8048,
      "Ġsill": 8049,
      "Ġsigning": 8050,
      "Ġtossed": 8051,
      "Ġbou": 8052,
      "ouched": 8053,
      "Ġdump": 8054,
      "Ġpins": 8055,
      "lets": 8056,
      "Ġsteth": 8057,
      "Ġshall": 8058,
      "Ġrely": 8059,
      "Ġloses": 8060,
      "ĠgirlÃ¢": 8061,
      "Ġclues": 8062,
      "Ġalthough": 8063,
      "Ġscent": 8064,
      "Ġscores": 8065,
      "âĤ¬,": 8066,
      "ĠLooking": 8067,
      "Ġpose": 8068,
      "Ġexploration": 8069,
      "ÅĵMaybe": 8070,
      "ÅĵSee": 8071,
      "Ġwinding": 8072,
      "ĠGre": 8073,
      "acle": 8074,
      "Ġclosing": 8075,
      "Ġleaking": 8076,
      "Ġcracks": 8077,
      "Ġparted": 8078,
      "Ġdripping": 8079,
      "Ġsnowy": 8080,
      "spe": 8081,
      "Ġdesigning": 8082,
      "Ġsurv": 8083,
      "Ġself": 8084,
      "ĠBruce": 8085,
      "ĠBecky": 8086,
      "Ġadds": 8087,
      "Ġjogger": 8088,
      "Ġhamster": 8089,
      "Ġfrowns": 8090,
      "Ġsweat": 8091,
      "Ġcombed": 8092,
      "Ġtaped": 8093,
      "Ġcomputers": 8094,
      "Ġwindowsill": 8095,
      "Ġunpacking": 8096,
      "Ġhooks": 8097,
      "Ġtearing": 8098,
      "ĠPatty": 8099,
      "Ġobserving": 8100,
      "Ġexplains": 8101,
      "Ġapplause": 8102,
      "Ġluckily": 8103,
      "Ġburger": 8104,
      "Ġfreezing": 8105,
      "Ġpurr": 8106,
      "Ġspits": 8107,
      "ĠVroom": 8108,
      "Ġoutfits": 8109,
      "Ġseagulls": 8110,
      "Ġtextures": 8111,
      "ĠNana": 8112,
      "Ġcottage": 8113,
      "Ġinstruments": 8114,
      "Ġexploded": 8115,
      "Brown": 8116,
      "ĠSkip": 8117,
      "Ġbouqu": 8118,
      "Ġstethos": 8119,
      "Bang": 8120,
      "Joy": 8121,
      "Since": 8122,
      "belt": 8123,
      "bank": 8124,
      "baby": 8125,
      "jack": 8126,
      "ker": 8127,
      "Ġcongratul": 8128,
      "inging": 8129,
      "Ġgall": 8130,
      "Ġyel": 8131,
      "Ġrowed": 8132,
      "ĠBra": 8133,
      "ĠBecause": 8134,
      "Ġlies": 8135,
      "Ġshallow": 8136,
      "Ġshorter": 8137,
      "Ġscri": 8138,
      "Ġfailed": 8139,
      "ĠYouÃ¢": 8140,
      "Ġcarries": 8141,
      "ĠLia": 8142,
      "Ġcares": 8143,
      "ĠDespite": 8144,
      "antha": 8145,
      "bbling": 8146,
      "anda": 8147,
      "Ġstrum": 8148,
      "Ġsnapping": 8149,
      "ortunately": 8150,
      "ĠJoanna": 8151,
      "aste": 8152,
      "ÅĵThe": 8153,
      "ÅĵWho": 8154,
      "bee": 8155,
      "LetÃ¢": 8156,
      "Ġcompete": 8157,
      "ĠKaty": 8158,
      "Ġprod": 8159,
      "Ġcaw": 8160,
      "Ġgiggles": 8161,
      "ĠAlbert": 8162,
      "Ġsprays": 8163,
      "Ġrobots": 8164,
      "Ġstretches": 8165,
      "Ġ''": 8166,
      "Ġclassmates": 8167,
      "Ġwiser": 8168,
      "ĠZoey": 8169,
      "Meanwhile": 8170,
      "Ġapologised": 8171,
      "Ġscarecrow": 8172,
      "Ġsweaty": 8173,
      "Ġbeetles": 8174,
      "Ġmember": 8175,
      "Ġerase": 8176,
      "Ġstamped": 8177,
      "Ġscooters": 8178,
      "Ġfilms": 8179,
      "Ġbeeped": 8180,
      "ĠRoger": 8181,
      "Ġtubes": 8182,
      "Ġtraveling": 8183,
      "Ġlumberjack": 8184,
      "Ġbothered": 8185,
      "Ġsimply": 8186,
      "Ġrepeats": 8187,
      "Ġsirens": 8188,
      "Ġfocus": 8189,
      "asmine": 8190,
      "Ġcotton": 8191
    },
    "merges": [
      [
        "h",
        "e"
      ],
      [
        "Ġ",
        "t"
      ],
      [
        "Ġ",
        "a"
      ],
      [
        "Ġ",
        "s"
      ],
      [
        "Ġ",
        "w"
      ],
      [
        "n",
        "d"
      ],
      [
        "Ġt",
        "he"
      ],
      [
        "e",
        "d"
      ],
      [
        "Ġa",
        "nd"
      ],
      [
        "Ġt",
        "o"
      ],
      [
        "Ġ",
        "b"
      ],
      [
        "i",
        "n"
      ],
      [
        "Ġ",
        "h"
      ],
      [
        "Ġw",
        "a"
      ],
      [
        "r",
        "e"
      ],
      [
        "Ġ",
        "f"
      ],
      [
        "o",
        "u"
      ],
      [
        "i",
        "t"
      ],
      [
        "Ġ",
        "l"
      ],
      [
        "Ġ",
        "c"
      ],
      [
        "Ġ",
        "d"
      ],
      [
        "e",
        "r"
      ],
      [
        "Ġ",
        "he"
      ],
      [
        "Ġ",
        "m"
      ],
      [
        "Ġ",
        "p"
      ],
      [
        "Ġwa",
        "s"
      ],
      [
        "o",
        "m"
      ],
      [
        "Ġ",
        "T"
      ],
      [
        "Ġ",
        "o"
      ],
      [
        "a",
        "y"
      ],
      [
        "a",
        "r"
      ],
      [
        "i",
        "s"
      ],
      [
        "in",
        "g"
      ],
      [
        "i",
        "l"
      ],
      [
        "Ġ",
        "g"
      ],
      [
        "i",
        "d"
      ],
      [
        "a",
        "t"
      ],
      [
        "e",
        "n"
      ],
      [
        "Ġ",
        "n"
      ],
      [
        "Ġs",
        "a"
      ],
      [
        "Ġh",
        "a"
      ],
      [
        "Ġ",
        "S"
      ],
      [
        "ĠT",
        "he"
      ],
      [
        "a",
        "n"
      ],
      [
        "i",
        "m"
      ],
      [
        "o",
        "r"
      ],
      [
        "o",
        "n"
      ],
      [
        "Ġ",
        "it"
      ],
      [
        "Ġt",
        "h"
      ],
      [
        "l",
        "l"
      ],
      [
        "l",
        "e"
      ],
      [
        "Ġ",
        "H"
      ],
      [
        "Ġhe",
        "r"
      ],
      [
        "o",
        "t"
      ],
      [
        "e",
        "t"
      ],
      [
        "i",
        "r"
      ],
      [
        "ĠS",
        "he"
      ],
      [
        "ĠH",
        "e"
      ],
      [
        "e",
        "s"
      ],
      [
        "Ġ",
        "in"
      ],
      [
        "v",
        "er"
      ],
      [
        "u",
        "t"
      ],
      [
        "o",
        "w"
      ],
      [
        "ĠThe",
        "y"
      ],
      [
        "c",
        "k"
      ],
      [
        "Ġ",
        "e"
      ],
      [
        "Ġ",
        "u"
      ],
      [
        "l",
        "d"
      ],
      [
        "il",
        "y"
      ],
      [
        "Ġ",
        "y"
      ],
      [
        "o",
        "o"
      ],
      [
        "Ġsa",
        "id"
      ],
      [
        "i",
        "g"
      ],
      [
        "Ġ",
        "r"
      ],
      [
        "a",
        "m"
      ],
      [
        "Ġb",
        "e"
      ],
      [
        "Ġs",
        "t"
      ],
      [
        "Ġ",
        "\""
      ],
      [
        "c",
        "e"
      ],
      [
        "Ġ",
        "I"
      ],
      [
        "Ġs",
        "he"
      ],
      [
        "k",
        "e"
      ],
      [
        "p",
        "p"
      ],
      [
        "it",
        "h"
      ],
      [
        "L",
        "ily"
      ],
      [
        "v",
        "e"
      ],
      [
        "Ġw",
        "ith"
      ],
      [
        "O",
        "n"
      ],
      [
        "Ġo",
        "n"
      ],
      [
        "Ġo",
        "f"
      ],
      [
        "r",
        "i"
      ],
      [
        "k",
        "ed"
      ],
      [
        "Ġh",
        "is"
      ],
      [
        "Ġy",
        "ou"
      ],
      [
        "Ġp",
        "l"
      ],
      [
        "Ġs",
        "o"
      ],
      [
        "n",
        "t"
      ],
      [
        "ver",
        "y"
      ],
      [
        "a",
        "d"
      ],
      [
        "Ġd",
        "ay"
      ],
      [
        "Ġth",
        "at"
      ],
      [
        "Ġu",
        "p"
      ],
      [
        "Ġ",
        "Lily"
      ],
      [
        "Ġpl",
        "ay"
      ],
      [
        "Ġha",
        "d"
      ],
      [
        "Ġthe",
        "y"
      ],
      [
        "s",
        "t"
      ],
      [
        "Ġw",
        "e"
      ],
      [
        "Ġm",
        "om"
      ],
      [
        "Ġf",
        "or"
      ],
      [
        "e",
        "l"
      ],
      [
        "m",
        "y"
      ],
      [
        "ou",
        "ld"
      ],
      [
        "u",
        "n"
      ],
      [
        "Ġ",
        "B"
      ],
      [
        "'",
        "s"
      ],
      [
        "T",
        "he"
      ],
      [
        "Ġl",
        "i"
      ],
      [
        "Ġha",
        "pp"
      ],
      [
        "c",
        "h"
      ],
      [
        "en",
        "t"
      ],
      [
        "it",
        "t"
      ],
      [
        "Ġwa",
        "nt"
      ],
      [
        "he",
        "r"
      ],
      [
        "Ġs",
        "h"
      ],
      [
        "ou",
        "t"
      ],
      [
        "Ġd",
        "o"
      ],
      [
        "Ġn",
        "ot"
      ],
      [
        "Ġ",
        "very"
      ],
      [
        "om",
        "e"
      ],
      [
        "l",
        "y"
      ],
      [
        "a",
        "ll"
      ],
      [
        "ou",
        "nd"
      ],
      [
        "e",
        "nd"
      ],
      [
        "itt",
        "le"
      ],
      [
        "im",
        "e"
      ],
      [
        "s",
        "e"
      ],
      [
        "Ġw",
        "h"
      ],
      [
        "Ġ",
        "k"
      ],
      [
        "Ġl",
        "ittle"
      ],
      [
        "Ġt",
        "ime"
      ],
      [
        "Ġthe",
        "re"
      ],
      [
        "a",
        "l"
      ],
      [
        "Ġn",
        "e"
      ],
      [
        "h",
        "t"
      ],
      [
        "Ġhapp",
        "y"
      ],
      [
        "Ġb",
        "ig"
      ],
      [
        "Ġ",
        "re"
      ],
      [
        "Ġ",
        "M"
      ],
      [
        "Ġ",
        "is"
      ],
      [
        "ĠI",
        "t"
      ],
      [
        "Ġs",
        "m"
      ],
      [
        "Ġb",
        "ut"
      ],
      [
        "Ġ",
        "Ċ"
      ],
      [
        "r",
        "a"
      ],
      [
        "Ġsa",
        "w"
      ],
      [
        "ri",
        "end"
      ],
      [
        "Ġf",
        "riend"
      ],
      [
        "Ġa",
        "n"
      ],
      [
        "r",
        "y"
      ],
      [
        "Ġa",
        "s"
      ],
      [
        "a",
        "ck"
      ],
      [
        ".",
        "\""
      ],
      [
        "On",
        "e"
      ],
      [
        "id",
        "e"
      ],
      [
        "a",
        "ke"
      ],
      [
        "'",
        "t"
      ],
      [
        "v",
        "ed"
      ],
      [
        "t",
        "er"
      ],
      [
        "u",
        "g"
      ],
      [
        "On",
        "ce"
      ],
      [
        "Ġl",
        "o"
      ],
      [
        "Ġl",
        "oo"
      ],
      [
        "Ġwe",
        "re"
      ],
      [
        "o",
        "re"
      ],
      [
        "!",
        "\""
      ],
      [
        "e",
        "c"
      ],
      [
        "Ġh",
        "im"
      ],
      [
        "Ġb",
        "o"
      ],
      [
        "Ġto",
        "o"
      ],
      [
        "ĠT",
        "im"
      ],
      [
        "Ġs",
        "e"
      ],
      [
        "Ġg",
        "o"
      ],
      [
        "ir",
        "l"
      ],
      [
        "Ġup",
        "on"
      ],
      [
        "Ġwant",
        "ed"
      ],
      [
        "Ġ",
        "j"
      ],
      [
        "ar",
        "d"
      ],
      [
        "Ġg",
        "irl"
      ],
      [
        "il",
        "l"
      ],
      [
        "Ġa",
        "re"
      ],
      [
        "Ġthe",
        "m"
      ],
      [
        "Ġ",
        "out"
      ],
      [
        "Ġa",
        "t"
      ],
      [
        "Ġthe",
        "ir"
      ],
      [
        "i",
        "nd"
      ],
      [
        "Ġs",
        "p"
      ],
      [
        "w",
        "ay"
      ],
      [
        "f",
        "u"
      ],
      [
        "Ġd",
        "id"
      ],
      [
        "u",
        "r"
      ],
      [
        "Ġc",
        "ould"
      ],
      [
        "Ġ",
        "A"
      ],
      [
        "he",
        "n"
      ],
      [
        "Ġsm",
        "il"
      ],
      [
        "a",
        "in"
      ],
      [
        "Ġha",
        "ve"
      ],
      [
        "ar",
        "t"
      ],
      [
        "Ġw",
        "ent"
      ],
      [
        "he",
        "d"
      ],
      [
        "Ġe",
        "x"
      ],
      [
        "r",
        "om"
      ],
      [
        "i",
        "c"
      ],
      [
        "r",
        "ound"
      ],
      [
        "l",
        "p"
      ],
      [
        "Ġn",
        "am"
      ],
      [
        "Ġc",
        "an"
      ],
      [
        "fu",
        "l"
      ],
      [
        "Ġfriend",
        "s"
      ],
      [
        "ĠB",
        "en"
      ],
      [
        "h",
        "ing"
      ],
      [
        "Ġhe",
        "lp"
      ],
      [
        "Ġk",
        "n"
      ],
      [
        "Ġa",
        "ll"
      ],
      [
        "Ġ",
        "J"
      ],
      [
        "oo",
        "d"
      ],
      [
        "ig",
        "ht"
      ],
      [
        "?",
        "\""
      ],
      [
        "u",
        "m"
      ],
      [
        "ar",
        "k"
      ],
      [
        "on",
        "e"
      ],
      [
        "Ġb",
        "ack"
      ],
      [
        "Ġf",
        "un"
      ],
      [
        "Ġc",
        "l"
      ],
      [
        "a",
        "re"
      ],
      [
        "Ġs",
        "ay"
      ],
      [
        "Ġl",
        "e"
      ],
      [
        "Y",
        "ou"
      ],
      [
        "Ġnam",
        "ed"
      ],
      [
        "Ġn",
        "o"
      ],
      [
        "ĠT",
        "om"
      ],
      [
        "Ġlo",
        "ved"
      ],
      [
        "o",
        "p"
      ],
      [
        "el",
        "t"
      ],
      [
        "ĠTim",
        "my"
      ],
      [
        "Ġ",
        "One"
      ],
      [
        "ou",
        "g"
      ],
      [
        "Ġa",
        "l"
      ],
      [
        "Ġs",
        "c"
      ],
      [
        "s",
        "ide"
      ],
      [
        "Ġf",
        "elt"
      ],
      [
        "Ġto",
        "y"
      ],
      [
        "i",
        "ck"
      ],
      [
        "Ġsmil",
        "ed"
      ],
      [
        "Ġm",
        "an"
      ],
      [
        "Ġf",
        "e"
      ],
      [
        "Ġas",
        "ked"
      ],
      [
        "Ġse",
        "e"
      ],
      [
        "am",
        "e"
      ],
      [
        "Ġloo",
        "ked"
      ],
      [
        "Ġli",
        "ke"
      ],
      [
        "Ġa",
        "round"
      ],
      [
        "Ġs",
        "ome"
      ],
      [
        "om",
        "et"
      ],
      [
        "u",
        "re"
      ],
      [
        "Ġr",
        "o"
      ],
      [
        "Ġbo",
        "y"
      ],
      [
        "Ġb",
        "r"
      ],
      [
        "g",
        "et"
      ],
      [
        "Ġw",
        "ould"
      ],
      [
        "Ġm",
        "e"
      ],
      [
        "Ġ",
        "W"
      ],
      [
        "Ġb",
        "ir"
      ],
      [
        "on",
        "g"
      ],
      [
        "i",
        "ce"
      ],
      [
        "Ġst",
        "art"
      ],
      [
        "s",
        "s"
      ],
      [
        "Ġs",
        "omet"
      ],
      [
        "Ġbir",
        "d"
      ],
      [
        "ing",
        "s"
      ],
      [
        "Ġf",
        "a"
      ],
      [
        "Ġw",
        "or"
      ],
      [
        "Ġa",
        "g"
      ],
      [
        "ad",
        "e"
      ],
      [
        "Ġm",
        "ake"
      ],
      [
        "Ġwh",
        "at"
      ],
      [
        "Ġt",
        "re"
      ],
      [
        "d",
        "d"
      ],
      [
        "k",
        "ing"
      ],
      [
        "get",
        "her"
      ],
      [
        "ow",
        "n"
      ],
      [
        "ĠB",
        "ut"
      ],
      [
        "Ġa",
        "way"
      ],
      [
        "Ġr",
        "an"
      ],
      [
        "a",
        "g"
      ],
      [
        "Ġstart",
        "ed"
      ],
      [
        ",",
        "\""
      ],
      [
        "Ġ",
        "You"
      ],
      [
        "ou",
        "d"
      ],
      [
        "Ġm",
        "ade"
      ],
      [
        "ar",
        "ed"
      ],
      [
        "i",
        "e"
      ],
      [
        "Ġto",
        "gether"
      ],
      [
        "Ã",
        "¢"
      ],
      [
        "â",
        "Ĥ"
      ],
      [
        "âĤ",
        "¬"
      ],
      [
        "Ġc",
        "o"
      ],
      [
        "Ġsay",
        "s"
      ],
      [
        "Ġp",
        "ark"
      ],
      [
        "Ġsomet",
        "hing"
      ],
      [
        "i",
        "f"
      ],
      [
        "Ġc",
        "ar"
      ],
      [
        "t",
        "her"
      ],
      [
        "it",
        "ed"
      ],
      [
        "Ġsa",
        "d"
      ],
      [
        "Ġp",
        "ut"
      ],
      [
        "Ġne",
        "w"
      ],
      [
        "Ġo",
        "ther"
      ],
      [
        "Ġp",
        "r"
      ],
      [
        "b",
        "le"
      ],
      [
        "Ġag",
        "ain"
      ],
      [
        "Ġf",
        "rom"
      ],
      [
        "Ġex",
        "c"
      ],
      [
        "Ġh",
        "ug"
      ],
      [
        "Ġm",
        "u"
      ],
      [
        "Ġh",
        "ome"
      ],
      [
        "Ġl",
        "a"
      ],
      [
        "e",
        "ll"
      ],
      [
        "Ġw",
        "hen"
      ],
      [
        "Ġwh",
        "o"
      ],
      [
        "oo",
        "k"
      ],
      [
        "Ġg",
        "ood"
      ],
      [
        "es",
        "t"
      ],
      [
        "ri",
        "ed"
      ],
      [
        "Ġf",
        "ound"
      ],
      [
        "Ġ",
        "L"
      ],
      [
        "Ġthe",
        "n"
      ],
      [
        "a",
        "ch"
      ],
      [
        "e",
        "p"
      ],
      [
        "Ġd",
        "ec"
      ],
      [
        "Ġf",
        "l"
      ],
      [
        "pp",
        "ed"
      ],
      [
        "Ġc",
        "h"
      ],
      [
        "a",
        "s"
      ],
      [
        "Ġplay",
        "ing"
      ],
      [
        "oug",
        "ht"
      ],
      [
        "Ġwa",
        "l"
      ],
      [
        "Ġg",
        "et"
      ],
      [
        "q",
        "u"
      ],
      [
        "all",
        "y"
      ],
      [
        "h",
        "at"
      ],
      [
        "Ġ",
        "E"
      ],
      [
        "Ġth",
        "ings"
      ],
      [
        "Ġs",
        "w"
      ],
      [
        "u",
        "ck"
      ],
      [
        "Ġg",
        "ot"
      ],
      [
        "p",
        "l"
      ],
      [
        "ou",
        "s"
      ],
      [
        "Ġli",
        "ked"
      ],
      [
        "n",
        "n"
      ],
      [
        "Ġe",
        "very"
      ],
      [
        "Ġdec",
        "id"
      ],
      [
        "Ġexc",
        "ited"
      ],
      [
        "a",
        "ve"
      ],
      [
        "Ġdecid",
        "ed"
      ],
      [
        "r",
        "o"
      ],
      [
        "Ġc",
        "ame"
      ],
      [
        "a",
        "x"
      ],
      [
        "Ġb",
        "l"
      ],
      [
        "Ġbe",
        "c"
      ],
      [
        "Ġd",
        "own"
      ],
      [
        "Ġyou",
        "r"
      ],
      [
        "Ġf",
        "ind"
      ],
      [
        "Ġc",
        "are"
      ],
      [
        "Ġdo",
        "g"
      ],
      [
        "u",
        "st"
      ],
      [
        "Ġsc",
        "ared"
      ],
      [
        "Ġon",
        "e"
      ],
      [
        "Ġfe",
        "el"
      ],
      [
        "Ġ",
        "v"
      ],
      [
        "Ġth",
        "an"
      ],
      [
        "is",
        "t"
      ],
      [
        "ou",
        "se"
      ],
      [
        "n",
        "y"
      ],
      [
        "Ġd",
        "ad"
      ],
      [
        "Ġ",
        "D"
      ],
      [
        "a",
        "p"
      ],
      [
        "ĠM",
        "om"
      ],
      [
        "Ġa",
        "b"
      ],
      [
        "ar",
        "n"
      ],
      [
        "ar",
        "a"
      ],
      [
        "way",
        "s"
      ],
      [
        "u",
        "e"
      ],
      [
        "Ġdid",
        "n"
      ],
      [
        "nn",
        "a"
      ],
      [
        "Ġg",
        "ra"
      ],
      [
        "u",
        "dd"
      ],
      [
        "Ġm",
        "y"
      ],
      [
        "Ġal",
        "ways"
      ],
      [
        "an",
        "t"
      ],
      [
        "Ġtoo",
        "k"
      ],
      [
        "er",
        "s"
      ],
      [
        "The",
        "y"
      ],
      [
        "Ġ",
        "ke"
      ],
      [
        "u",
        "s"
      ],
      [
        "Ġmom",
        "my"
      ],
      [
        "es",
        "s"
      ],
      [
        "Ġ",
        "F"
      ],
      [
        "f",
        "e"
      ],
      [
        "Ġab",
        "out"
      ],
      [
        "ou",
        "r"
      ],
      [
        "Ġl",
        "ot"
      ],
      [
        "Ġtoy",
        "s"
      ],
      [
        "Ġtre",
        "e"
      ],
      [
        "Ġp",
        "o"
      ],
      [
        "Ġkn",
        "e"
      ],
      [
        "Ġb",
        "all"
      ],
      [
        "Ġloo",
        "k"
      ],
      [
        "Ġw",
        "ill"
      ],
      [
        "nd",
        "er"
      ],
      [
        "Ġout",
        "side"
      ],
      [
        "it",
        "e"
      ],
      [
        "Ġth",
        "ought"
      ],
      [
        "ec",
        "i"
      ],
      [
        "en",
        "ed"
      ],
      [
        "Ġt",
        "a"
      ],
      [
        "Ġle",
        "arn"
      ],
      [
        "b",
        "b"
      ],
      [
        "is",
        "e"
      ],
      [
        "c",
        "hed"
      ],
      [
        "Ġm",
        "ore"
      ],
      [
        "Ġp",
        "re"
      ],
      [
        "Ġkn",
        "ow"
      ],
      [
        "Ġh",
        "o"
      ],
      [
        "Ġin",
        "t"
      ],
      [
        "ĠS",
        "am"
      ],
      [
        "g",
        "ed"
      ],
      [
        "eci",
        "al"
      ],
      [
        "Ġsp",
        "ecial"
      ],
      [
        "Ġo",
        "ld"
      ],
      [
        "Ġt",
        "ake"
      ],
      [
        "Ġs",
        "or"
      ],
      [
        "ĠM",
        "ax"
      ],
      [
        "Ġla",
        "ug"
      ],
      [
        "Ġp",
        "e"
      ],
      [
        "Ġkne",
        "w"
      ],
      [
        "i",
        "ve"
      ],
      [
        "Ġc",
        "at"
      ],
      [
        "m",
        "a"
      ],
      [
        "f",
        "ter"
      ],
      [
        "Ġh",
        "ow"
      ],
      [
        "Ġan",
        "y"
      ],
      [
        "udd",
        "en"
      ],
      [
        "a",
        "u"
      ],
      [
        "Ġsh",
        "ow"
      ],
      [
        "Ġt",
        "r"
      ],
      [
        "Ġmu",
        "ch"
      ],
      [
        "i",
        "a"
      ],
      [
        "udden",
        "ly"
      ],
      [
        "Ġsor",
        "ry"
      ],
      [
        "a",
        "nd"
      ],
      [
        "Ġs",
        "l"
      ],
      [
        "in",
        "k"
      ],
      [
        "B",
        "ut"
      ],
      [
        "is",
        "h"
      ],
      [
        "Ġr",
        "un"
      ],
      [
        "Ġh",
        "ouse"
      ],
      [
        "Ġt",
        "w"
      ],
      [
        "v",
        "en"
      ],
      [
        "Ġto",
        "ld"
      ],
      [
        "Ġo",
        "r"
      ],
      [
        "Ġs",
        "k"
      ],
      [
        "Ġo",
        "p"
      ],
      [
        "Ġha",
        "nd"
      ],
      [
        "Ġs",
        "un"
      ],
      [
        "Ġin",
        "side"
      ],
      [
        "Ġg",
        "ave"
      ],
      [
        "Ġt",
        "ried"
      ],
      [
        "Ġm",
        "o"
      ],
      [
        "Ġcl",
        "o"
      ],
      [
        "Ġint",
        "o"
      ],
      [
        "Ġwa",
        "ter"
      ],
      [
        "Ġpr",
        "oud"
      ],
      [
        "an",
        "k"
      ],
      [
        "Ġcould",
        "n"
      ],
      [
        "Ġo",
        "ver"
      ],
      [
        "Ġ",
        "qu"
      ],
      [
        "au",
        "se"
      ],
      [
        "at",
        "e"
      ],
      [
        "Ġne",
        "ver"
      ],
      [
        "um",
        "p"
      ],
      [
        "t",
        "y"
      ],
      [
        "ot",
        "her"
      ],
      [
        "ĠE",
        "very"
      ],
      [
        "Ġ",
        "en"
      ],
      [
        "Ġe",
        "at"
      ],
      [
        "Ġ",
        "if"
      ],
      [
        "a",
        "ce"
      ],
      [
        "Ġro",
        "om"
      ],
      [
        "Ġplay",
        "ed"
      ],
      [
        "et",
        "ter"
      ],
      [
        "Ġhe",
        "ard"
      ],
      [
        "g",
        "e"
      ],
      [
        "Ġex",
        "pl"
      ],
      [
        "Ġe",
        "ach"
      ],
      [
        "Ġp",
        "ick"
      ],
      [
        "Ġpre",
        "t"
      ],
      [
        "i",
        "on"
      ],
      [
        "Ġth",
        "is"
      ],
      [
        "b",
        "y"
      ],
      [
[...]
